{
  "src_word2id": {
    "<pad>": 0,
    "<s>": 1,
    "</s>": 2,
    "<unk>": 3,
    ",": 4,
    ".": 5,
    "the": 6,
    "in": 7,
    "of": 8,
    "and": 9,
    "die": 10,
    "der": 11,
    "to": 12,
    "und": 13,
    "a": 14,
    "is": 15,
    "that": 16,
    "zu": 17,
    "for": 18,
    "den": 19,
    "von": 20,
    "ist": 21,
    "on": 22,
    "f\u00fcr": 23,
    "an": 24,
    "mit": 25,
    "with": 26,
    "(": 27,
    "das": 28,
    "The": 29,
    ")": 30,
    "be": 31,
    "are": 32,
    "auf": 33,
    "des": 34,
    "as": 35,
    "I": 36,
    "-": 37,
    "eine": 38,
    "this": 39,
    "es": 40,
    "Sie": 41,
    "im": 42,
    ":": 43,
    "it": 44,
    "nicht": 45,
    "werden": 46,
    "&quot;": 47,
    "we": 48,
    "ein": 49,
    "by": 50,
    "have": 51,
    "dass": 52,
    "dem": 53,
    "sich": 54,
    "not": 55,
    "Die": 56,
    "you": 57,
    "wir": 58,
    "will": 59,
    "auch": 60,
    "which": 61,
    "or": 62,
    "at": 63,
    "from": 64,
    "was": 65,
    "sind": 66,
    "wird": 67,
    "has": 68,
    "als": 69,
    "um": 70,
    "s": 71,
    "In": 72,
    "can": 73,
    "ich": 74,
    "oder": 75,
    "all": 76,
    "our": 77,
    "-@@": 78,
    "also": 79,
    "haben": 80,
    "\u00fcber": 81,
    "European": 82,
    "so": 83,
    "einer": 84,
    "/": 85,
    "er": 86,
    "hat": 87,
    "!": 88,
    "?": 89,
    "sie": 90,
    "&apos;": 91,
    "wie": 92,
    "einen": 93,
    "zur": 94,
    "aus": 95,
    "Das": 96,
    "bei": 97,
    "Union": 98,
    "your": 99,
    "&apos;s": 100,
    "its": 101,
    "Ich": 102,
    "k\u00f6nnen": 103,
    "\u2013": 104,
    "We": 105,
    "am": 106,
    "but": 107,
    "one": 108,
    "would": 109,
    "more": 110,
    "einem": 111,
    "\u2019": 112,
    "their": 113,
    "been": 114,
    "nach": 115,
    "This": 116,
    "zum": 117,
    "It": 118,
    "Wir": 119,
    "diese": 120,
    "uns": 121,
    "nur": 122,
    "durch": 123,
    "should": 124,
    "kann": 125,
    "Mr": 126,
    "Der": 127,
    "un@@": 128,
    ";": 129,
    "dieser": 130,
    "de": 131,
    "very": 132,
    "Commission": 133,
    "must": 134,
    "do": 135,
    "...": 136,
    "Es": 137,
    "us": 138,
    "vor": 139,
    "da\u00df": 140,
    "they": 141,
    "Kommission": 142,
    "er@@": 143,
    "there": 144,
    "noch": 145,
    "new": 146,
    "\u201c": 147,
    "wurde": 148,
    "other": 149,
    "time": 150,
    "S@@": 151,
    "only": 152,
    "like": 153,
    "EU": 154,
    "aber": 155,
    "ver@@": 156,
    "about": 157,
    "Hotel": 158,
    "Herr": 159,
    "B@@": 160,
    "wenn": 161,
    "man": 162,
    "sehr": 163,
    "sein": 164,
    "o": 165,
    "m\u00fcssen": 166,
    "President": 167,
    "s@@": 168,
    "an@@": 169,
    "k@@": 170,
    "t@@": 171,
    "these": 172,
    "en@@": 173,
    "te": 174,
    "T@@": 175,
    "P@@": 176,
    "t": 177,
    "ten": 178,
    "who": 179,
    "en": 180,
    "up": 181,
    "war": 182,
    "no": 183,
    "diesem": 184,
    "alle": 185,
    "if": 186,
    "A": 187,
    "e": 188,
    "K@@": 189,
    "H@@": 190,
    "in@@": 191,
    "out": 192,
    "mehr": 193,
    "%": 194,
    "any": 195,
    "Europ\u00e4ischen": 196,
    "ab@@": 197,
    "Europe": 198,
    "re@@": 199,
    "C@@": 200,
    "into": 201,
    "were": 202,
    "people": 203,
    "G@@": 204,
    "D@@": 205,
    "ing": 206,
    "2": 207,
    "Parliament": 208,
    "bis": 209,
    "M@@": 210,
    "m\u00f6chte": 211,
    "L@@": 212,
    "F@@": 213,
    "p@@": 214,
    "such": 215,
    "eines": 216,
    "f@@": 217,
    "what": 218,
    "d@@": 219,
    "1": 220,
    "use": 221,
    "States": 222,
    "than": 223,
    "b@@": 224,
    "countries": 225,
    "report": 226,
    "ed": 227,
    "Member": 228,
    "my": 229,
    "vom": 230,
    "need": 231,
    "A@@": 232,
    "ihre": 233,
    "when": 234,
    "his": 235,
    "most": 236,
    "some": 237,
    "Pr\u00e4sident": 238,
    "well": 239,
    "gibt": 240,
    "now": 241,
    "hotel": 242,
    "first": 243,
    "unter": 244,
    "z@@": 245,
    "sowie": 246,
    "work": 247,
    "dieses": 248,
    "g@@": 249,
    "R@@": 250,
    "make": 251,
    "E@@": 252,
    "them": 253,
    "Council": 254,
    "many": 255,
    "important": 256,
    "able": 257,
    "W@@": 258,
    "N@@": 259,
    "y": 260,
    "c@@": 261,
    "between": 262,
    "hier": 263,
    "system": 264,
    "way": 265,
    "ge@@": 266,
    "n@@": 267,
    "e@@": 268,
    "take": 269,
    "because": 270,
    "m@@": 271,
    "zwischen": 272,
    "muss": 273,
    "3": 274,
    "m": 275,
    "Ver@@": 276,
    "Bericht": 277,
    "keine": 278,
    "\u201e": 279,
    "unsere": 280,
    "ein@@": 281,
    "An@@": 282,
    "al@@": 283,
    "he": 284,
    "ch@@": 285,
    "da": 286,
    "made": 287,
    "information": 288,
    "Ihnen": 289,
    "Parlament": 290,
    "o@@": 291,
    "V@@": 292,
    "ers": 293,
    "years": 294,
    "just": 295,
    "If": 296,
    "had": 297,
    "support": 298,
    "i@@": 299,
    "l@@": 300,
    "anderen": 301,
    "st@@": 302,
    "two": 303,
    "&#91;": 304,
    "&#93;": 305,
    "ation": 306,
    "over": 307,
    "el@@": 308,
    "world": 309,
    "those": 310,
    "Mitgliedstaaten": 311,
    "where": 312,
    "al": 313,
    "Wenn": 314,
    "Europa": 315,
    "aus@@": 316,
    "ung": 317,
    "\u201d": 318,
    "immer": 319,
    "dies": 320,
    "v@@": 321,
    "i": 322,
    "h@@": 323,
    "policy": 324,
    "dann": 325,
    "end": 326,
    "being": 327,
    "y@@": 328,
    "Im": 329,
    "el": 330,
    "di@@": 331,
    "O@@": 332,
    "even": 333,
    "ar@@": 334,
    "or@@": 335,
    "may": 336,
    "diesen": 337,
    "gegen": 338,
    "Ab@@": 339,
    "damit": 340,
    "me": 341,
    "u@@": 342,
    "wurden": 343,
    "sch@@": 344,
    "a@@": 345,
    "Diese": 346,
    "good": 347,
    "5": 348,
    "d": 349,
    "right": 350,
    "see": 351,
    "Frau": 352,
    "year": 353,
    "order": 354,
    "4": 355,
    "Zeit": 356,
    "area": 357,
    "ent@@": 358,
    "es@@": 359,
    "le": 360,
    "Ihre": 361,
    "j@@": 362,
    "unserer": 363,
    "de@@": 364,
    "ter": 365,
    "here": 366,
    "habe": 367,
    "r@@": 368,
    "part": 369,
    "place": 370,
    "You": 371,
    "seine": 372,
    "same": 373,
    "market": 374,
    "jedoch": 375,
    "l": 376,
    "through": 377,
    "sondern": 378,
    "after": 379,
    "Sch@@": 380,
    "Europ\u00e4ische": 381,
    "possible": 382,
    "own": 383,
    "neue": 384,
    "As": 385,
    "10": 386,
    "auf@@": 387,
    "be@@": 388,
    "ate": 389,
    "I@@": 390,
    "&amp;": 391,
    "J@@": 392,
    ".@@": 393,
    "Menschen": 394,
    "heute": 395,
    "There": 396,
    "political": 397,
    "on@@": 398,
    "li@@": 399,
    "could": 400,
    "ungen": 401,
    "used": 402,
    "vor@@": 403,
    "Jahr": 404,
    "then": 405,
    "economic": 406,
    "For": 407,
    "Z@@": 408,
    "development": 409,
    "want": 410,
    "k": 411,
    "et": 412,
    "gen": 413,
    "within": 414,
    "bereits": 415,
    "zu@@": 416,
    "rights": 417,
    "how": 418,
    "both": 419,
    "finden": 420,
    "europ\u00e4ischen": 421,
    "against": 422,
    "find": 423,
    "mich": 424,
    "sollte": 425,
    "much": 426,
    "at@@": 427,
    "international": 428,
    "therefore": 429,
    "Jahren": 430,
    "ihrer": 431,
    "neuen": 432,
    "ti@@": 433,
    "ro@@": 434,
    "ts": 435,
    "ohne": 436,
    "ungs@@": 437,
    "w@@": 438,
    "under": 439,
    "si@@": 440,
    "andere": 441,
    "does": 442,
    "country": 443,
    "point": 444,
    "denen": 445,
    "room": 446,
    "public": 447,
    "Rat": 448,
    "Ein@@": 449,
    "zwei": 450,
    "without": 451,
    "sollten": 452,
    "Entwicklung": 453,
    "ge": 454,
    "et@@": 455,
    "Frage": 456,
    "service": 457,
    "services": 458,
    "um@@": 459,
    "last": 460,
    "allen": 461,
    "number": 462,
    "great": 463,
    "machen": 464,
    "ganz": 465,
    "bietet": 466,
    "still": 467,
    "free": 468,
    "available": 469,
    "ri@@": 470,
    "geht": 471,
    "em@@": 472,
    "e-@@": 473,
    "Mit": 474,
    "different": 475,
    "liegt": 476,
    "fact": 477,
    "view": 478,
    "Aus@@": 479,
    "sten": 480,
    "social": 481,
    "n": 482,
    "viele": 483,
    "say": 484,
    "course": 485,
    "am@@": 486,
    "Ein": 487,
    "Welt": 488,
    "already": 489,
    "Unternehmen": 490,
    "6": 491,
    "th@@": 492,
    "before": 493,
    "future": 494,
    "believe": 495,
    "dazu": 496,
    "too": 497,
    "get": 498,
    "That": 499,
    "la": 500,
    "know": 501,
    "ar": 502,
    "weil": 503,
    "today": 504,
    "\u00fcber@@": 505,
    "Er@@": 506,
    "jetzt": 507,
    "wieder": 508,
    "products": 509,
    "enden": 510,
    "St@@": 511,
    "In@@": 512,
    "3@@": 513,
    "U@@": 514,
    "ur@@": 515,
    "30": 516,
    "set": 517,
    "20": 518,
    "But": 519,
    "per": 520,
    "denn": 521,
    "seiner": 522,
    "ens": 523,
    "cannot": 524,
    "ischen": 525,
    "case": 526,
    "think": 527,
    "Informationen": 528,
    "Lage": 529,
    "2009": 530,
    "darauf": 531,
    "day": 532,
    "Vor@@": 533,
    "process": 534,
    "ab": 535,
    "Bereich": 536,
    "data": 537,
    "her": 538,
    "is@@": 539,
    "g": 540,
    "dis@@": 541,
    "offers": 542,
    "op@@": 543,
    "level": 544,
    "einige": 545,
    "se": 546,
    "ad@@": 547,
    "Ma\u00dfnahmen": 548,
    "ische": 549,
    "schon": 550,
    "city": 551,
    "daf\u00fcr": 552,
    "selbst": 553,
    "ob": 554,
    "human": 555,
    "ated": 556,
    "So": 557,
    "rooms": 558,
    "Commissioner": 559,
    "quality": 560,
    "ern": 561,
    "sp@@": 562,
    "situation": 563,
    "financial": 564,
    "during": 565,
    "Al@@": 566,
    "le@@": 567,
    "ihren": 568,
    "Jahre": 569,
    "ihr": 570,
    "best": 571,
    "geben": 572,
    "national": 573,
    "Herrn": 574,
    "high": 575,
    "it@@": 576,
    "bin": 577,
    "Eine": 578,
    "issue": 579,
    "Dies": 580,
    "example": 581,
    "Arbeit": 582,
    "mir": 583,
    "viel": 584,
    "debate": 585,
    "said": 586,
    "bar": 587,
    "allem": 588,
    "means": 589,
    "every": 590,
    "small": 591,
    "7": 592,
    "question": 593,
    "w\u00fcrde": 594,
    "ra@@": 595,
    "liche": 596,
    "Our": 597,
    "including": 598,
    "meine": 599,
    "gut": 600,
    "ale": 601,
    "proposal": 602,
    "since": 603,
    "However": 604,
    "st": 605,
    "help": 606,
    "All": 607,
    "wollen": 608,
    "sagen": 609,
    "business": 610,
    "Land": 611,
    "unseren": 612,
    "go": 613,
    "each": 614,
    "F\u00fcr": 615,
    "ent": 616,
    "form": 617,
    "access": 618,
    "offer": 619,
    "long": 620,
    "ende": 621,
    "problem": 622,
    "Und": 623,
    "China": 624,
    "em": 625,
    "stehen": 626,
    "lo@@": 627,
    "ch": 628,
    "kommen": 629,
    "Zimmer": 630,
    "etwas": 631,
    "clear": 632,
    "w\u00e4hrend": 633,
    "position": 634,
    "wo": 635,
    "8": 636,
    "ag@@": 637,
    "tes": 638,
    "S": 639,
    "particular": 640,
    "L\u00e4nder": 641,
    "os": 642,
    "stellen": 643,
    "nun": 644,
    "lassen": 645,
    "Wie": 646,
    "waren": 647,
    "m\u00f6glich": 648,
    "areas": 649,
    "doch": 650,
    "ins": 651,
    "give": 652,
    "next": 653,
    "few": 654,
    "measures": 655,
    "15": 656,
    "common": 657,
    "provide": 658,
    "agreement": 659,
    "Committee": 660,
    "4@@": 661,
    "co@@": 662,
    "put": 663,
    "as@@": 664,
    "bi@@": 665,
    "seit": 666,
    "energy": 667,
    "taken": 668,
    "2@@": 669,
    "based": 670,
    "On": 671,
    "citizens": 672,
    "2010": 673,
    "large": 674,
    "insbesondere": 675,
    "lichen": 676,
    "p": 677,
    "\ufffd": 678,
    "ensure": 679,
    "z": 680,
    "lich": 681,
    "again": 682,
    "ant": 683,
    "sehen": 684,
    "systems": 685,
    "erhalten": 686,
    "ter@@": 687,
    "back": 688,
    "three": 689,
    "steht": 690,
    "come": 691,
    "Unterst\u00fctzung": 692,
    "us@@": 693,
    "ersten": 694,
    "C": 695,
    "&#124;": 696,
    "Rahmen": 697,
    "further": 698,
    "Art": 699,
    "problems": 700,
    "security": 701,
    "eren": 702,
    "ol@@": 703,
    "company": 704,
    "change": 705,
    "L\u00e4ndern": 706,
    "Un@@": 707,
    "Y@@": 708,
    "far": 709,
    "T": 710,
    "Internet": 711,
    "Zusammenarbeit": 712,
    "ic": 713,
    "du": 714,
    "while": 715,
    "2008": 716,
    "Parlaments": 717,
    "x": 718,
    "Teil": 719,
    "using": 720,
    "necessary": 721,
    "50": 722,
    "ber@@": 723,
    "beim": 724,
    "why": 725,
    "ating": 726,
    "given": 727,
    "however": 728,
    "shall": 729,
    "ak@@": 730,
    "besteht": 731,
    "located": 732,
    "politischen": 733,
    "sk@@": 734,
    "stay": 735,
    "ni@@": 736,
    "To": 737,
    "Fall": 738,
    "vote": 739,
    "soll": 740,
    "Vorschlag": 741,
    "With": 742,
    "life": 743,
    "f": 744,
    "ie": 745,
    "ste": 746,
    "They": 747,
    "less": 748,
    "cooperation": 749,
    "einfach": 750,
    "ul@@": 751,
    "tun": 752,
    "needs": 753,
    "eg@@": 754,
    "Bei": 755,
    "always": 756,
    "group": 757,
    "At": 758,
    "Stadt": 759,
    "Group": 760,
    "down": 761,
    "And": 762,
    "seinen": 763,
    "real": 764,
    "law": 765,
    "Fragen": 766,
    "wichtig": 767,
    "im@@": 768,
    "ja": 769,
    "deren": 770,
    "Problem": 771,
    "drei": 772,
    "ly": 773,
    "einmal": 774,
    "hope": 775,
    "w\u00e4re": 776,
    "USA": 777,
    "United": 778,
    "Ziel": 779,
    "letzten": 780,
    "Namen": 781,
    "main": 782,
    "gen@@": 783,
    "qu@@": 784,
    "action": 785,
    "dabei": 786,
    "au@@": 787,
    "km": 788,
    "better": 789,
    "c": 790,
    "B\u00fcrger": 791,
    "ations": 792,
    "X@@": 793,
    "b": 794,
    "12": 795,
    "EU-@@": 796,
    "What": 797,
    "around": 798,
    "ap@@": 799,
    "men": 800,
    "House": 801,
    "ert": 802,
    "Kollegen": 803,
    "5@@": 804,
    "x@@": 805,
    "ac@@": 806,
    "zi@@": 807,
    "gro\u00dfe": 808,
    "con@@": 809,
    "Mar@@": 810,
    "working": 811,
    "power": 812,
    "gro\u00dfen": 813,
    "unter@@": 814,
    "did": 815,
    "worden": 816,
    "ma@@": 817,
    "ke": 818,
    "bringen": 819,
    "protection": 820,
    "Daten": 821,
    "Was": 822,
    "end@@": 823,
    "Recht": 824,
    "Auf": 825,
    "r": 826,
    "Verf\u00fcgung": 827,
    "System": 828,
    "D": 829,
    "production": 830,
    "weiter": 831,
    "18@@": 832,
    "Er": 833,
    "Ihr": 834,
    "programme": 835,
    "current": 836,
    "welche": 837,
    "special": 838,
    "Seite": 839,
    "Bedeutung": 840,
    "These": 841,
    "Community": 842,
    "become": 843,
    "ings": 844,
    "est@@": 845,
    "om@@": 846,
    "Aber": 847,
    "US": 848,
    "legal": 849,
    "Sicherheit": 850,
    "u": 851,
    "\u00e4@@": 852,
    "Auch": 853,
    "When": 854,
    "centre": 855,
    "terms": 856,
    "present": 857,
    "E": 858,
    "der@@": 859,
    "open": 860,
    "ine": 861,
    "together": 862,
    "M\u00f6glichkeit": 863,
    "land": 864,
    "whether": 865,
    "trade": 866,
    "che": 867,
    "ere": 868,
    "particularly": 869,
    "wissen": 870,
    "another": 871,
    "di": 872,
    "chen": 873,
    "old": 874,
    "eigenen": 875,
    "full": 876,
    "age": 877,
    "gehen": 878,
    "page": 879,
    "9": 880,
    "children": 881,
    "\u00e9@@": 882,
    "bieten": 883,
    "Nach": 884,
    "management": 885,
    "result": 886,
    "Regierung": 887,
    "basis": 888,
    "que": 889,
    "Als": 890,
    "*": 891,
    "100": 892,
    "Sp@@": 893,
    "Mrs": 894,
    "mu\u00df": 895,
    "vi@@": 896,
    "conditions": 897,
    "Ar@@": 898,
    "2007": 899,
    "Thema": 900,
    "region": 901,
    "th": 902,
    "issues": 903,
    "davon": 904,
    "k\u00f6nnte": 905,
    "ene": 906,
    "alles": 907,
    "Re@@": 908,
    "mo@@": 909,
    "ates": 910,
    "daher": 911,
    "Probleme": 912,
    "aller": 913,
    "companies": 914,
    "ed@@": 915,
    "kein": 916,
    "sh@@": 917,
    "-S@@": 918,
    "ous": 919,
    "state": 920,
    "dar\u00fcber": 921,
    "experience": 922,
    "sen": 923,
    "site": 924,
    "weitere": 925,
    "Kunden": 926,
    "Staaten": 927,
    "ens@@": 928,
    "befindet": 929,
    "certain": 930,
    "f\u00fchren": 931,
    "Weise": 932,
    "control": 933,
    "ten@@": 934,
    "6@@": 935,
    "Kommissar": 936,
    "se@@": 937,
    "ger@@": 938,
    "water": 939,
    "sowohl": 940,
    "B": 941,
    "Politik": 942,
    "line": 943,
    "second": 944,
    "den@@": 945,
    "women": 946,
    "O": 947,
    "Ihrer": 948,
    "role": 949,
    "various": 950,
    "erreichen": 951,
    "po@@": 952,
    "her@@": 953,
    "2000": 954,
    "Di@@": 955,
    "especially": 956,
    "industry": 957,
    "whole": 958,
    "German": 959,
    "ted": 960,
    "modern": 961,
    "sector": 962,
    "les": 963,
    "besonders": 964,
    "really": 965,
    "ans": 966,
    "Euro": 967,
    "eb@@": 968,
    "Ende": 969,
    "est": 970,
    "hatte": 971,
    "close": 972,
    "government": 973,
    "matter": 974,
    "meiner": 975,
    "done": 976,
    "making": 977,
    "Zukunft": 978,
    "ec@@": 979,
    "health": 980,
    "ei@@": 981,
    "7@@": 982,
    "look": 983,
    "local": 984,
    "private": 985,
    "wirklich": 986,
    "account": 987,
    "ting": 988,
    "Be@@": 989,
    "Service": 990,
    "unterst\u00fctzen": 991,
    "unser": 992,
    "25": 993,
    "location": 994,
    "Beispiel": 995,
    "stellt": 996,
    "+": 997,
    "19@@": 998,
    "ihnen": 999,
    "nat\u00fcrlich": 1000,
    "budget": 1001,
    "create": 1002,
    "entfernt": 1003,
    "innerhalb": 1004,
    "verschiedenen": 1005,
    "name": 1006,
    "specific": 1007,
    "global": 1008,
    "inter@@": 1009,
    "vielen": 1010,
    "staff": 1011,
    "Germany": 1012,
    "00": 1013,
    "respect": 1014,
    "gegen\u00fcber": 1015,
    "research": 1016,
    "days": 1017,
    "Rolle": 1018,
    "Richtlinie": 1019,
    "major": 1020,
    "going": 1021,
    "Auf@@": 1022,
    "isch": 1023,
    "software": 1024,
    "P": 1025,
    "Weg": 1026,
    "internationalen": 1027,
    "million": 1028,
    "ut@@": 1029,
    "ir@@": 1030,
    "m\u00f6chten": 1031,
    "Pro@@": 1032,
    "Con@@": 1033,
    "ser@@": 1034,
    "2006": 1035,
    "a-@@": 1036,
    "kommt": 1037,
    "_": 1038,
    "away": 1039,
    "zwar": 1040,
    "something": 1041,
    "8@@": 1042,
    "pro@@": 1043,
    "Ihren": 1044,
    "project": 1045,
    "several": 1046,
    "off": 1047,
    "itself": 1048,
    "ger": 1049,
    "continue": 1050,
    "Frauen": 1051,
    "ot@@": 1052,
    "ck@@": 1053,
    "ze": 1054,
    "hand": 1055,
    "direkt": 1056,
    "enen": 1057,
    "europ\u00e4ische": 1058,
    "rapporteur": 1059,
    "dort": 1060,
    "resolution": 1061,
    "ex@@": 1062,
    "crisis": 1063,
    "re": 1064,
    "politische": 1065,
    "Hotels": 1066,
    "Tag": 1067,
    "often": 1068,
    "ask": 1069,
    "000": 1070,
    "Seiten": 1071,
    "tions": 1072,
    "excellent": 1073,
    "la@@": 1074,
    "range": 1075,
    "ur": 1076,
    "EUR": 1077,
    "ler": 1078,
    "erste": 1079,
    "regard": 1080,
    "hi@@": 1081,
    "ne": 1082,
    "ob@@": 1083,
    "start": 1084,
    "wish": 1085,
    "gentlemen": 1086,
    "Mo@@": 1087,
    "gi@@": 1088,
    "Alle": 1089,
    "Hier": 1090,
    "least": 1091,
    "New": 1092,
    "ve": 1093,
    "general": 1094,
    "Um": 1095,
    "ing@@": 1096,
    "single": 1097,
    "elle": 1098,
    "transport": 1099,
    "He": 1100,
    "to@@": 1101,
    "gel@@": 1102,
    "11": 1103,
    "h": 1104,
    "following": 1105,
    "9@@": 1106,
    "rules": 1107,
    "price": 1108,
    "welcome": 1109,
    "third": 1110,
    "fully": 1111,
    "growth": 1112,
    "food": 1113,
    "personal": 1114,
    "ors": 1115,
    "money": 1116,
    "directive": 1117,
    "Programm": 1118,
    "little": 1119,
    "once": 1120,
    "Artikel": 1121,
    "environment": 1122,
    "Meinung": 1123,
    "found": 1124,
    "\u00dcber@@": 1125,
    "per@@": 1126,
    "online": 1127,
    "let": 1128,
    "Ma@@": 1129,
    "stand": 1130,
    "subject": 1131,
    "bo@@": 1132,
    "Uhr": 1133,
    "all@@": 1134,
    "list": 1135,
    "ally": 1136,
    "no@@": 1137,
    "nehmen": 1138,
    "towards": 1139,
    "beiden": 1140,
    "until": 1141,
    "L\u00f6sung": 1142,
    "product": 1143,
    "so@@": 1144,
    "institutions": 1145,
    "things": 1146,
    "customers": 1147,
    "Situation": 1148,
    "\u00fc@@": 1149,
    "unserem": 1150,
    "res@@": 1151,
    "World": 1152,
    "fast": 1153,
    "arbeiten": 1154,
    "pro": 1155,
    "Madam": 1156,
    "Li@@": 1157,
    "No": 1158,
    "tra@@": 1159,
    "Region": 1160,
    "field": 1161,
    "Fraktion": 1162,
    "for@@": 1163,
    "Dieses": 1164,
    "M": 1165,
    "Zusammenhang": 1166,
    "gesagt": 1167,
    "increase": 1168,
    "F": 1169,
    "ieren": 1170,
    "individual": 1171,
    "him": 1172,
    "au": 1173,
    "cht@@": 1174,
    "Ro@@": 1175,
    "thank": 1176,
    "version": 1177,
    "ci@@": 1178,
    "family": 1179,
    "standards": 1180,
    "opportunity": 1181,
    "tr@@": 1182,
    "Hilfe": 1183,
    "Produkte": 1184,
    "Co@@": 1185,
    "\u00ae": 1186,
    "weniger": 1187,
    "Treaty": 1188,
    "los": 1189,
    "par@@": 1190,
    "ons": 1191,
    "town": 1192,
    "pl@@": 1193,
    "40": 1194,
    "Th@@": 1195,
    "rather": 1196,
    "&apos;t": 1197,
    "iert": 1198,
    "positive": 1199,
    "quite": 1200,
    "Bo@@": 1201,
    "activities": 1202,
    "building": 1203,
    "ati@@": 1204,
    "home": 1205,
    "design": 1206,
    "Pr\u00e4sidentin": 1207,
    "wei@@": 1208,
    "Mittel": 1209,
    "Arbeits@@": 1210,
    "ber": 1211,
    "call": 1212,
    "approach": 1213,
    "jeder": 1214,
    "aid": 1215,
    "ce": 1216,
    "side": 1217,
    "interest": 1218,
    "2005": 1219,
    "un": 1220,
    "provided": 1221,
    "Leben": 1222,
    "bitte": 1223,
    "gilt": 1224,
    "resources": 1225,
    "Deshalb": 1226,
    "bel@@": 1227,
    "value": 1228,
    "art": 1229,
    "\u00f6@@": 1230,
    "daran": 1231,
    "erte": 1232,
    "Haus": 1233,
    "L": 1234,
    "forward": 1235,
    "schen": 1236,
    "technology": 1237,
    "Unter@@": 1238,
    "yet": 1239,
    "economy": 1240,
    "mi@@": 1241,
    "ds": 1242,
    "schaffen": 1243,
    "sogar": 1244,
    "etwa": 1245,
    "bzw.": 1246,
    "period": 1247,
    "halten": 1248,
    "An": 1249,
    "key": 1250,
    "solution": 1251,
    "Grund": 1252,
    "ne@@": 1253,
    "Members": 1254,
    "light": 1255,
    "agree": 1256,
    "ges": 1257,
    "play": 1258,
    "September": 1259,
    "might": 1260,
    "wi@@": 1261,
    "include": 1262,
    "Um@@": 1263,
    "gemacht": 1264,
    "Millionen": 1265,
    "R": 1266,
    "nen": 1267,
    "ic@@": 1268,
    "hinaus": 1269,
    "dessen": 1270,
    "taking": 1271,
    "ru@@": 1272,
    "X": 1273,
    "Europas": 1274,
    "members": 1275,
    "macht": 1276,
    "alen": 1277,
    "indem": 1278,
    "rate": 1279,
    "decision": 1280,
    "times": 1281,
    "International": 1282,
    "ding": 1283,
    "among": 1284,
    "having": 1285,
    "ladies": 1286,
    "minutes": 1287,
    "Schutz": 1288,
    "En@@": 1289,
    "After": 1290,
    "ek@@": 1291,
    "State": 1292,
    "costs": 1293,
    "ung@@": 1294,
    "due": 1295,
    "proposals": 1296,
    "allow": 1297,
    "points": 1298,
    "n\u00e4mlich": 1299,
    "Haupt@@": 1300,
    "ep@@": 1301,
    "One": 1302,
    "amendments": 1303,
    "Unsere": 1304,
    "Dieser": 1305,
    "content": 1306,
    "led": 1307,
    "Ch@@": 1308,
    "Deutschland": 1309,
    "man@@": 1310,
    "framework": 1311,
    "safety": 1312,
    "2004": 1313,
    "24": 1314,
    "ass@@": 1315,
    "ets": 1316,
    "Kinder": 1317,
    "ebenfalls": 1318,
    "via": 1319,
    "ha@@": 1320,
    "mon@@": 1321,
    "Ex@@": 1322,
    "18": 1323,
    "words": 1324,
    "car@@": 1325,
    "reason": 1326,
    "14": 1327,
    "air": 1328,
    "ellen": 1329,
    "ator": 1330,
    "Kon@@": 1331,
    "ihn": 1332,
    "makes": 1333,
    "einigen": 1334,
    "y-@@": 1335,
    "enjoy": 1336,
    "progress": 1337,
    "tri@@": 1338,
    "called": 1339,
    "0@@": 1340,
    "website": 1341,
    "cht": 1342,
    "zen": 1343,
    "adopted": 1344,
    "text": 1345,
    "rei@@": 1346,
    "seinem": 1347,
    "show": 1348,
    "eln": 1349,
    "ment": 1350,
    "chten": 1351,
    "Par@@": 1352,
    "brauchen": 1353,
    "ou@@": 1354,
    "and@@": 1355,
    "gute": 1356,
    "ary": 1357,
    "Mon@@": 1358,
    "&apos;@@": 1359,
    "unterst\u00fctzt": 1360,
    "provides": 1361,
    "left": 1362,
    "hin@@": 1363,
    "effective": 1364,
    "difficult": 1365,
    "ihm": 1366,
    "il@@": 1367,
    "Zu@@": 1368,
    "TV": 1369,
    "sicher": 1370,
    "\u00e9": 1371,
    "others": 1372,
    "eh@@": 1373,
    "darf": 1374,
    "Rates": 1375,
    "t-@@": 1376,
    "Website": 1377,
    "easy": 1378,
    "projects": 1379,
    "ia": 1380,
    "Punkt": 1381,
    "legislation": 1382,
    "setzen": 1383,
    "Aussprache": 1384,
    "Personen": 1385,
    "views": 1386,
    "opinion": 1387,
    "ischer": 1388,
    "darin": 1389,
    "Form": 1390,
    "16": 1391,
    "results": 1392,
    "favour": 1393,
    "politik": 1394,
    "above": 1395,
    "application": 1396,
    "Qualit\u00e4t": 1397,
    "known": 1398,
    "contact": 1399,
    "ach@@": 1400,
    "responsibility": 1401,
    "Finanz@@": 1402,
    "\u00f6ffentlichen": 1403,
    "ster": 1404,
    "attention": 1405,
    "policies": 1406,
    "Berlin": 1407,
    "groups": 1408,
    "sen@@": 1409,
    "simply": 1410,
    "Software": 1411,
    "tion": 1412,
    "Restaurant": 1413,
    "addition": 1414,
    "\u00e1@@": 1415,
    "beautiful": 1416,
    "non-@@": 1417,
    "gh@@": 1418,
    "concerned": 1419,
    "gerade": 1420,
    "d\u00fcrfen": 1421,
    "questions": 1422,
    "ken": 1423,
    "short": 1424,
    "Da": 1425,
    "su@@": 1426,
    "meisten": 1427,
    "glaube": 1428,
    "behalf": 1429,
    "del": 1430,
    "EN": 1431,
    "kon@@": 1432,
    "nationalen": 1433,
    "je": 1434,
    "ideal": 1435,
    "2003": 1436,
    "ben": 1437,
    "war@@": 1438,
    "Wirtschaft": 1439,
    "genau": 1440,
    "station": 1441,
    "jeden": 1442,
    ".com": 1443,
    "tige": 1444,
    "nichts": 1445,
    "Ri@@": 1446,
    "Abstimmung": 1447,
    "importance": 1448,
    "licher": 1449,
    "ability": 1450,
    "ches": 1451,
    "keinen": 1452,
    "tischen": 1453,
    "G": 1454,
    "pre@@": 1455,
    "av@@": 1456,
    "alten": 1457,
    "sollen": 1458,
    "ihrem": 1459,
    "ina": 1460,
    "society": 1461,
    "complete": 1462,
    "ts@@": 1463,
    "ell@@": 1464,
    "strategy": 1465,
    "Gemeinschaft": 1466,
    "ant@@": 1467,
    "she": 1468,
    "greater": 1469,
    "Rechte": 1470,
    "over@@": 1471,
    "handelt": 1472,
    "cultural": 1473,
    "erten": 1474,
    "weiterhin": 1475,
    "\u00df@@": 1476,
    "ad": 1477,
    "ance": 1478,
    "Grund@@": 1479,
    "zur\u00fcck@@": 1480,
    "zusammen": 1481,
    "training": 1482,
    "ell": 1483,
    "environmental": 1484,
    "klar": 1485,
    "ete": 1486,
    "sea": 1487,
    "Ebene": 1488,
    "betrifft": 1489,
    "cher": 1490,
    "ra": 1491,
    "ago": 1492,
    "Ort": 1493,
    "along": 1494,
    "do@@": 1495,
    "statt": 1496,
    "natural": 1497,
    "13": 1498,
    "Inter@@": 1499,
    "required": 1500,
    "kind": 1501,
    "nach@@": 1502,
    "sei": 1503,
    "La": 1504,
    "principle": 1505,
    "ier@@": 1506,
    "heart": 1507,
    "bedeutet": 1508,
    "tigen": 1509,
    "findet": 1510,
    "step": 1511,
    "pages": 1512,
    "wichtige": 1513,
    "recent": 1514,
    "eten": 1515,
    "recht": 1516,
    "Gu@@": 1517,
    "Bezug": 1518,
    "d-@@": 1519,
    "\u20ac": 1520,
    "1@@": 1521,
    "w\u00fcrden": 1522,
    "breakfast": 1523,
    "weit": 1524,
    "bereich": 1525,
    "nutzen": 1526,
    "besten": 1527,
    "ses": 1528,
    "meeting": 1529,
    "solche": 1530,
    "besser": 1531,
    "gestellt": 1532,
    "deal": 1533,
    "house": 1534,
    "century": 1535,
    "f\u00fchrt": 1536,
    "deshalb": 1537,
    "schnell": 1538,
    "Gesellschaft": 1539,
    "wide": 1540,
    "Bi@@": 1541,
    "under@@": 1542,
    "durch@@": 1543,
    "deutlich": 1544,
    "clearly": 1545,
    "min@@": 1546,
    "address": 1547,
    "ah@@": 1548,
    "authorities": 1549,
    "tive": 1550,
    "ana": 1551,
    "2001": 1552,
    "plan": 1553,
    "Qu@@": 1554,
    "November": 1555,
    "fall": 1556,
    "Zugang": 1557,
    "sure": 1558,
    "aufgrund": 1559,
    "sc@@": 1560,
    "technical": 1561,
    "user": 1562,
    "besch@@": 1563,
    "ef@@": 1564,
    "Dank": 1565,
    "Von": 1566,
    "geh\u00f6rt": 1567,
    "sprechen": 1568,
    "Kosten": 1569,
    "fen": 1570,
    "achieve": 1571,
    "solutions": 1572,
    "Russia": 1573,
    "Richtung": 1574,
    "gu@@": 1575,
    "n\u00e4chsten": 1576,
    "erst": 1577,
    "lot": 1578,
    "form@@": 1579,
    "ev@@": 1580,
    "enough": 1581,
    "directly": 1582,
    "K": 1583,
    "10@@": 1584,
    "past": 1585,
    "employment": 1586,
    "needed": 1587,
    "facilities": 1588,
    "essential": 1589,
    "pool": 1590,
    "bekannt": 1591,
    "hin": 1592,
    "serious": 1593,
    "standard": 1594,
    "bu@@": 1595,
    "IT": 1596,
    "-B@@": 1597,
    "Markt": 1598,
    "months": 1599,
    "thing": 1600,
    "feel": 1601,
    "nature": 1602,
    "person": 1603,
    "bring": 1604,
    "mer@@": 1605,
    "developed": 1606,
    "ative": 1607,
    "allerdings": 1608,
    "restaurant": 1609,
    "history": 1610,
    "mis@@": 1611,
    "Her@@": 1612,
    "N\u00e4he": 1613,
    "Bar@@": 1614,
    "related": 1615,
    "Ansicht": 1616,
    "guests": 1617,
    "60": 1618,
    "risk": 1619,
    "currently": 1620,
    "car": 1621,
    "Please": 1622,
    "events": 1623,
    "Aus": 1624,
    "responsible": 1625,
    "proposed": 1626,
    "w": 1627,
    "Umsetzung": 1628,
    "ph@@": 1629,
    "ters": 1630,
    "eller": 1631,
    "longer": 1632,
    "markets": 1633,
    "Ent@@": 1634,
    "Menschenrechte": 1635,
    "len": 1636,
    "April": 1637,
    "visit": 1638,
    "requirements": 1639,
    "central": 1640,
    "ren@@": 1641,
    "te@@": 1642,
    "com@@": 1643,
    "live": 1644,
    "interests": 1645,
    "ka": 1646,
    "ure": 1647,
    "N": 1648,
    "ker": 1649,
    "R\u00fcck@@": 1650,
    "comes": 1651,
    "night": 1652,
    "parties": 1653,
    "From": 1654,
    "near": 1655,
    "Windows": 1656,
    "internal": 1657,
    "comfortable": 1658,
    "Ziele": 1659,
    "ko@@": 1660,
    "$": 1661,
    "wer@@": 1662,
    "fi@@": 1663,
    "language": 1664,
    "beispielsweise": 1665,
    "voll": 1666,
    "up@@": 1667,
    "Ad@@": 1668,
    "Vertrag": 1669,
    "liches": 1670,
    "hoffe": 1671,
    "ded": 1672,
    "please": 1673,
    "themselves": 1674,
    "Verfahren": 1675,
    "Verantwortung": 1676,
    "Version": 1677,
    "ner": 1678,
    "kl@@": 1679,
    "sub@@": 1680,
    "2002": 1681,
    "lange": 1682,
    "Rechts@@": 1683,
    "werde": 1684,
    "young": 1685,
    "Bedingungen": 1686,
    "involved": 1687,
    "efforts": 1688,
    "regions": 1689,
    "gegeben": 1690,
    "Am": 1691,
    "0": 1692,
    "extremely": 1693,
    "democracy": 1694,
    "\u2018": 1695,
    "voted": 1696,
    "pi@@": 1697,
    "top": 1698,
    "changes": 1699,
    "ess@@": 1700,
    "competition": 1701,
    "Durch": 1702,
    "ang@@": 1703,
    "total": 1704,
    "GmbH": 1705,
    "notwendig": 1706,
    "ran@@": 1707,
    "verwendet": 1708,
    "regulation": 1709,
    "ca": 1710,
    "str@@": 1711,
    "Anwendung": 1712,
    "strong": 1713,
    "never": 1714,
    "team": 1715,
    "implementation": 1716,
    "vielleicht": 1717,
    "friendly": 1718,
    "Interesse": 1719,
    "cases": 1720,
    "Demokratie": 1721,
    "keep": 1722,
    "gesch@@": 1723,
    "gemeinsamen": 1724,
    "kleinen": 1725,
    "Ihrem": 1726,
    "Vorschl\u00e4ge": 1727,
    "Haushalts@@": 1728,
    "V": 1729,
    "tu@@": 1730,
    "eri@@": 1731,
    "ziehen": 1732,
    "force": 1733,
    "Grundlage": 1734,
    "Po@@": 1735,
    "Man": 1736,
    "network": 1737,
    "Reihe": 1738,
    "Geschichte": 1739,
    "Daher": 1740,
    "\u00e0": 1741,
    "freedom": 1742,
    "event": 1743,
    "peace": 1744,
    "Herren": 1745,
    "ever": 1746,
    "Gebiet": 1747,
    "upon": 1748,
    "four": 1749,
    "17@@": 1750,
    "20@@": 1751,
    "M\u00f6glichkeiten": 1752,
    "\u00e4r@@": 1753,
    "bleiben": 1754,
    "erreicht": 1755,
    "ves": 1756,
    "ff@@": 1757,
    "Doch": 1758,
    "wirtschaftlichen": 1759,
    "though": 1760,
    "situated": 1761,
    "sti@@": 1762,
    "chte": 1763,
    "ma": 1764,
    "lei@@": 1765,
    "etc": 1766,
    "democratic": 1767,
    "France": 1768,
    "ationen": 1769,
    "works": 1770,
    "spielen": 1771,
    "sozialen": 1772,
    "prices": 1773,
    "af@@": 1774,
    "act": 1775,
    "rates": 1776,
    "regional": 1777,
    "..": 1778,
    "zeigt": 1779,
    "file": 1780,
    "aten": 1781,
    "either": 1782,
    "k\u00f6nnten": 1783,
    "oft": 1784,
    "ok@@": 1785,
    "negotiations": 1786,
    "da@@": 1787,
    "Lu@@": 1788,
    "tische": 1789,
    "Sicherheits@@": 1790,
    "ity": 1791,
    "space": 1792,
    "developing": 1793,
    "Debatte": 1794,
    "Institutionen": 1795,
    "created": 1796,
    "bed": 1797,
    "ging": 1798,
    "AG": 1799,
    "care": 1800,
    "consider": 1801,
    "unique": 1802,
    "tern": 1803,
    "true": 1804,
    "wenig": 1805,
    "education": 1806,
    "looking": 1807,
    "17": 1808,
    "big": 1809,
    "music": 1810,
    "sion": 1811,
    "Car@@": 1812,
    "und@@": 1813,
    "Or@@": 1814,
    "bar@@": 1815,
    "everything": 1816,
    "80": 1817,
    "share": 1818,
    "material": 1819,
    "Pi@@": 1820,
    "almost": 1821,
    "500": 1822,
    "du@@": 1823,
    "seen": 1824,
    "mal": 1825,
    "dar": 1826,
    "Tri@@": 1827,
    "states": 1828,
    "held": 1829,
    "request": 1830,
    "thus": 1831,
    "beach": 1832,
    "erung": 1833,
    "verschiedene": 1834,
    "vier": 1835,
    "ig@@": 1836,
    "1.@@": 1837,
    "Strategie": 1838,
    "reform": 1839,
    "success": 1840,
    "improve": 1841,
    "early": 1842,
    "pay": 1843,
    "ck": 1844,
    "funds": 1845,
    "verf\u00fcgt": 1846,
    "Bank": 1847,
    "designed": 1848,
    "additional": 1849,
    "leben": 1850,
    "parts": 1851,
    "liegen": 1852,
    "bei@@": 1853,
    "meet": 1854,
    "en-@@": 1855,
    "ty": 1856,
    "ER@@": 1857,
    "fundamental": 1858,
    "climate": 1859,
    "road": 1860,
    "hei@@": 1861,
    "ho@@": 1862,
    "cost": 1863,
    "Bau@@": 1864,
    "try": 1865,
    "son": 1866,
    "foreign": 1867,
    "date": 1868,
    "effect": 1869,
    "according": 1870,
    "Auswirkungen": 1871,
    "200": 1872,
    "famous": 1873,
    "erm\u00f6glicht": 1874,
    "Damen": 1875,
    "red": 1876,
    "type": 1877,
    "American": 1878,
    "ard": 1879,
    "ER": 1880,
    "soon": 1881,
    "Minuten": 1882,
    "Le@@": 1883,
    "geb@@": 1884,
    "links": 1885,
    "term": 1886,
    "unternehmen": 1887,
    "Dienstleistungen": 1888,
    "gemeinsame": 1889,
    "Wirtschafts@@": 1890,
    "hard": 1891,
    "weltweit": 1892,
    "included": 1893,
    "actually": 1894,
    "Dis@@": 1895,
    "Berichterstatter": 1896,
    "idea": 1897,
    "Abkommen": 1898,
    "hatten": 1899,
    "helfen": 1900,
    "receive": 1901,
    "later": 1902,
    "www.@@": 1903,
    "bare": 1904,
    "French": 1905,
    "danken": 1906,
    "Park": 1907,
    "Israel": 1908,
    "lichkeit": 1909,
    "Presidency": 1910,
    "understand": 1911,
    "Ge@@": 1912,
    "living": 1913,
    "lead": 1914,
    "Cor@@": 1915,
    "Zu": 1916,
    "lan@@": 1917,
    "tion@@": 1918,
    "mit@@": 1919,
    "turn": 1920,
    "accept": 1921,
    "erforderlich": 1922,
    "Paris": 1923,
    "capital": 1924,
    "v": 1925,
    "direct": 1926,
    "1999": 1927,
    "Verhandlungen": 1928,
    "Hinblick": 1929,
    "low": 1930,
    "Wasser@@": 1931,
    "takes": 1932,
    "program": 1933,
    "wegen": 1934,
    "Mitglieder": 1935,
    "bus": 1936,
    "Neu@@": 1937,
    "Programme": 1938,
    "appropriate": 1939,
    "test": 1940,
    "ling": 1941,
    "outside": 1942,
    "AN@@": 1943,
    "workers": 1944,
    "Tatsache": 1945,
    "gesamten": 1946,
    "Regionen": 1947,
    "Gesch\u00e4fts@@": 1948,
    "bereit": 1949,
    "users": 1950,
    "tiger": 1951,
    "tax": 1952,
    "Man@@": 1953,
    "investment": 1954,
    "San": 1955,
    "ence": 1956,
    "sa@@": 1957,
    "Rei@@": 1958,
    "\u00bb": 1959,
    "features": 1960,
    "ebenso": 1961,
    "ender": 1962,
    "ways": 1963,
    "entwickelt": 1964,
    "Zentrum": 1965,
    "Au\u00dferdem": 1966,
    "einzelnen": 1967,
    "Gruppe": 1968,
    "reach": 1969,
    "center": 1970,
    "How": 1971,
    "og@@": 1972,
    "ents": 1973,
    "gr@@": 1974,
    "ft": 1975,
    "amount": 1976,
    "IN@@": 1977,
    "procedure": 1978,
    "run": 1979,
    "Liste": 1980,
    "o-@@": 1981,
    "Schritt": 1982,
    "hours": 1983,
    "lin@@": 1984,
    "weiteren": 1985,
    "enn@@": 1986,
    "oc@@": 1987,
    "go@@": 1988,
    "denke": 1989,
    "cor@@": 1990,
    "internationale": 1991,
    "week": 1992,
    "book": 1993,
    "majority": 1994,
    "Y": 1995,
    "ann@@": 1996,
    "gebracht": 1997,
    "darum": 1998,
    "Kolleginnen": 1999,
    "took": 2000,
    "doing": 2001,
    "mu@@": 2002,
    "\u00ed@@": 2003,
    "card": 2004,
    "16@@": 2005,
    "fer@@": 2006,
    "fragen": 2007,
    "lu@@": 2008,
    "communication": 2009,
    "Ergebnis": 2010,
    "Entscheidung": 2011,
    "throughout": 2012,
    "Mor@@": 2013,
    "l\u00e4sst": 2014,
    "By": 2015,
    "ties": 2016,
    "ms": 2017,
    "active": 2018,
    "h\u00e4tte": 2019,
    "tic": 2020,
    "across": 2021,
    "jedem": 2022,
    "guarantee": 2023,
    "konnte": 2024,
    "Bereichen": 2025,
    "certainly": 2026,
    "significant": 2027,
    "ders": 2028,
    "ari@@": 2029,
    "traditional": 2030,
    "Bel@@": 2031,
    "ta@@": 2032,
    "zeit": 2033,
    "connection": 2034,
    "ing-@@": 2035,
    "br@@": 2036,
    "final": 2037,
    "\u00c4nderungsantr\u00e4ge": 2038,
    "AR@@": 2039,
    "legen": 2040,
    "aware": 2041,
    "Vereinigten": 2042,
    "existing": 2043,
    "Antwort": 2044,
    "Umwelt@@": 2045,
    "Platz": 2046,
    "\u2026": 2047,
    "writing": 2048,
    "befinden": 2049,
    "mar@@": 2050,
    "perfect": 2051,
    "mentioned": 2052,
    "Bu@@": 2053,
    "gleichen": 2054,
    "19": 2055,
    "Krise": 2056,
    "tragen": 2057,
    "Blick": 2058,
    "America": 2059,
    "ente": 2060,
    "\u00c4nderungsantrag": 2061,
    "Turkey": 2062,
    "Erfolg": 2063,
    "Beziehungen": 2064,
    "relations": 2065,
    "Gr@@": 2066,
    "auszu@@": 2067,
    "out@@": 2068,
    "context": 2069,
    "media": 2070,
    "performance": 2071,
    "concerns": 2072,
    "gab": 2073,
    "des@@": 2074,
    "leading": 2075,
    "fahren": 2076,
    "Bev\u00f6lkerung": 2077,
    "gleichzeitig": 2078,
    "gef\u00fchrt": 2079,
    "ges@@": 2080,
    "sche": 2081,
    "men@@": 2082,
    "15@@": 2083,
    "ast@@": 2084,
    "AT@@": 2085,
    "member": 2086,
    "original": 2087,
    "tig": 2088,
    "initiative": 2089,
    "wichtigen": 2090,
    "read": 2091,
    "gemeinsam": 2092,
    "customer": 2093,
    "z.B.": 2094,
    "Preis": 2095,
    "wei\u00df": 2096,
    "ver": 2097,
    "ats": 2098,
    "ette": 2099,
    "eu@@": 2100,
    "knowledge": 2101,
    "My": 2102,
    "military": 2103,
    "s-@@": 2104,
    "jede": 2105,
    "zeigen": 2106,
    "impact": 2107,
    "Seit": 2108,
    "add": 2109,
    "body": 2110,
    "walk": 2111,
    "programmes": 2112,
    "Tra@@": 2113,
    "five": 2114,
    "moment": 2115,
    "Bar": 2116,
    "built": 2117,
    "&gt;": 2118,
    "bekommen": 2119,
    "er-@@": 2120,
    "kleine": 2121,
    "apply": 2122,
    "Ausdruck": 2123,
    "hei\u00dft": 2124,
    "Unser": 2125,
    "professional": 2126,
    "although": 2127,
    "Abgeordneten": 2128,
    "Geld": 2129,
    "bleibt": 2130,
    "send": 2131,
    "Aufgabe": 2132,
    "sel@@": 2133,
    "IS@@": 2134,
    "Japan": 2135,
    "21": 2136,
    "board": 2137,
    "wohl": 2138,
    "2.@@": 2139,
    "game": 2140,
    "completely": 2141,
    "population": 2142,
    "Verbindung": 2143,
    "T\u00fcrkei": 2144,
    "nothing": 2145,
    "established": 2146,
    "Minister": 2147,
    "reasons": 2148,
    "committee": 2149,
    "=": 2150,
    "includes": 2151,
    "community": 2152,
    "Si@@": 2153,
    "allows": 2154,
    "ern@@": 2155,
    "Zum": 2156,
    "verbunden": 2157,
    "Government": 2158,
    "fl@@": 2159,
    "decisions": 2160,
    "equipped": 2161,
    "table": 2162,
    "Einsatz": 2163,
    "Mal": 2164,
    "remain": 2165,
    "concerning": 2166,
    "stage": 2167,
    "agreements": 2168,
    "ano": 2169,
    "Since": 2170,
    "For@@": 2171,
    "basic": 2172,
    "Kontrolle": 2173,
    "meinen": 2174,
    "wor@@": 2175,
    "code": 2176,
    "Q@@": 2177,
    "fin@@": 2178,
    "baren": 2179,
    "dern": 2180,
    "F\u00f6rderung": 2181,
    "style": 2182,
    "unseres": 2183,
    "English": 2184,
    "culture": 2185,
    "70": 2186,
    "\u00e4n@@": 2187,
    "enthalten": 2188,
    "London": 2189,
    "Su@@": 2190,
    "practice": 2191,
    "lose": 2192,
    "choice": 2193,
    "jobs": 2194,
    "gestimmt": 2195,
    "gern": 2196,
    "Projekt": 2197,
    "ang": 2198,
    "me@@": 2199,
    "sense": 2200,
    "pp@@": 2201,
    "Verordnung": 2202,
    "partners": 2203,
    "Court": 2204,
    "gt": 2205,
    "ones": 2206,
    "model": 2207,
    "Kar@@": 2208,
    "Se@@": 2209,
    "EN@@": 2210,
    "bet@@": 2211,
    "neu": 2212,
    "Forschung": 2213,
    "internet": 2214,
    "party": 2215,
    "tieren": 2216,
    "Jahres": 2217,
    "holiday": 2218,
    "22": 2219,
    "values": 2220,
    "Ru@@": 2221,
    "demand": 2222,
    "equipment": 2223,
    "Damit": 2224,
    "received": 2225,
    "web": 2226,
    "IC@@": 2227,
    "L\u00f6sungen": 2228,
    "ta": 2229,
    "simple": 2230,
    "Wei@@": 2231,
    "gest@@": 2232,
    "De@@": 2233,
    "develop": 2234,
    "he@@": 2235,
    "Information": 2236,
    "bre@@": 2237,
    "files": 2238,
    "ales": 2239,
    "package": 2240,
    "applications": 2241,
    "bl@@": 2242,
    "jedes": 2243,
    "cks": 2244,
    "ise": 2245,
    "integration": 2246,
    "Let": 2247,
    "W": 2248,
    "Partner": 2249,
    "dr@@": 2250,
    "els": 2251,
    "ations@@": 2252,
    "hand@@": 2253,
    "amm@@": 2254,
    "Erweiterung": 2255,
    "ben@@": 2256,
    "potential": 2257,
    "August": 2258,
    "objectives": 2259,
    "richtig": 2260,
    "entire": 2261,
    "Beh\u00f6rden": 2262,
    "Com@@": 2263,
    "Bitte": 2264,
    "II": 2265,
    "stop": 2266,
    "wichtigsten": 2267,
    "Entschlie\u00dfung": 2268,
    "regarding": 2269,
    "nice": 2270,
    "gra@@": 2271,
    "move": 2272,
    "leg@@": 2273,
    "gerne": 2274,
    "Sh@@": 2275,
    "face": 2276,
    "IT@@": 2277,
    "Nach@@": 2278,
    "tre@@": 2279,
    "park": 2280,
    "ES": 2281,
    "Iran": 2282,
    "tur@@": 2283,
    "Beitrag": 2284,
    "pf@@": 2285,
    "function": 2286,
    "Lisbon": 2287,
    "below": 2288,
    "quickly": 2289,
    "tiert": 2290,
    "benefit": 2291,
    "Nutzung": 2292,
    "ST@@": 2293,
    "mehrere": 2294,
    "rund": 2295,
    "va": 2296,
    "bit": 2297,
    "ade": 2298,
    "gleich": 2299,
    "Here": 2300,
    "No@@": 2301,
    "land@@": 2302,
    "fight": 2303,
    "focus": 2304,
    "aim": 2305,
    "ti": 2306,
    "agricultural": 2307,
    "12@@": 2308,
    "ys": 2309,
    "concern": 2310,
    "Ausschuss": 2311,
    "successful": 2312,
    "East": 2313,
    "Mi@@": 2314,
    "image": 2315,
    "fest@@": 2316,
    "90": 2317,
    "reports": 2318,
    "hinsichtlich": 2319,
    "versch@@": 2320,
    "zur\u00fcck": 2321,
    "eigene": 2322,
    "objective": 2323,
    "ganze": 2324,
    "enth\u00e4lt": 2325,
    "pres@@": 2326,
    "Du@@": 2327,
    "fest": 2328,
    "Russland": 2329,
    "Steuer@@": 2330,
    "treatment": 2331,
    "check": 2332,
    "ganzen": 2333,
    "South": 2334,
    "goods": 2335,
    "euro": 2336,
    "seems": 2337,
    "erm\u00f6glichen": 2338,
    "tz@@": 2339,
    "derzeit": 2340,
    "27": 2341,
    "contains": 2342,
    "AL@@": 2343,
    "return": 2344,
    "Per@@": 2345,
    "app@@": 2346,
    "ierung": 2347,
    "May": 2348,
    "ori@@": 2349,
    "Landes": 2350,
    "don": 2351,
    "neben": 2352,
    "Verbesserung": 2353,
    "recently": 2354,
    "wobei": 2355,
    "governments": 2356,
    "ness": 2357,
    "Land@@": 2358,
    "achieved": 2359,
    "Vor": 2360,
    "Markt@@": 2361,
    "Finally": 2362,
    "anzu@@": 2363,
    "genommen": 2364,
    "eng@@": 2365,
    "indeed": 2366,
    "press": 2367,
    "enter": 2368,
    "Ausschusses": 2369,
    "ist@@": 2370,
    "met@@": 2371,
    "levels": 2372,
    "vo@@": 2373,
    "Text": 2374,
    "ausge@@": 2375,
    "Fl@@": 2376,
    "{": 2377,
    "mind": 2378,
    "front": 2379,
    "hotels": 2380,
    "\u00ab": 2381,
    "det": 2382,
    "guest": 2383,
    "mean": 2384,
    "Ergebnisse": 2385,
    "enk@@": 2386,
    "coming": 2387,
    "dar@@": 2388,
    "June": 2389,
    "Verbraucher": 2390,
    "Welt@@": 2391,
    "beginning": 2392,
    "prevent": 2393,
    "National": 2394,
    "AS@@": 2395,
    "fair": 2396,
    "War@@": 2397,
    "enten": 2398,
    "amp@@": 2399,
    "rest": 2400,
    "huge": 2401,
    "Angebot": 2402,
    "series": 2403,
    "added": 2404,
    "Ni@@": 2405,
    "Central": 2406,
    "job": 2407,
    "einzu@@": 2408,
    "increased": 2409,
    "keyword": 2410,
    "al-@@": 2411,
    "places": 2412,
    "computer": 2413,
    "rec@@": 2414,
    "Gelegenheit": 2415,
    "Vi@@": 2416,
    "clean": 2417,
    "Woche": 2418,
    "v\u00f6llig": 2419,
    "Wort": 2420,
    "isches": 2421,
    "ange@@": 2422,
    "asked": 2423,
    "everyone": 2424,
    "lack": 2425,
    "co": 2426,
    "note": 2427,
    "Design": 2428,
    "answer": 2429,
    "Schaffung": 2430,
    "verbessern": 2431,
    "ei": 2432,
    "presented": 2433,
    "23": 2434,
    "RE@@": 2435,
    "alt@@": 2436,
    "size": 2437,
    "Ber@@": 2438,
    "Am@@": 2439,
    "ality": 2440,
    "Dar\u00fcber": 2441,
    "ying": 2442,
    "Verwendung": 2443,
    "anderer": 2444,
    "dialogue": 2445,
    "14@@": 2446,
    "office": 2447,
    "Initiative": 2448,
    "wirtschaftliche": 2449,
    "Ko@@": 2450,
    "Some": 2451,
    "reviews": 2452,
    "floor": 2453,
    "ation@@": 2454,
    "consumers": 2455,
    "Regierungen": 2456,
    "Mitarbeiter": 2457,
    "f\u00f6rdern": 2458,
    "ies": 2459,
    "agreed": 2460,
    "guten": 2461,
    "entwickeln": 2462,
    "shows": 2463,
    "gro\u00dfer": 2464,
    "verwenden": 2465,
    "inc@@": 2466,
    "relevant": 2467,
    "rich": 2468,
    "enz@@": 2469,
    "il": 2470,
    "highly": 2471,
    "higher": 2472,
    "tor": 2473,
    "gs": 2474,
    "Affairs": 2475,
    "verf\u00fcgen": 2476,
    "best@@": 2477,
    "balance": 2478,
    "id": 2479,
    "suchen": 2480,
    "ES@@": 2481,
    "PC": 2482,
    "mat@@": 2483,
    "direction": 2484,
    "ks": 2485,
    "lage": 2486,
    "choose": 2487,
    "geh\u00f6ren": 2488,
    "comp@@": 2489,
    "sustainable": 2490,
    "rel@@": 2491,
    "Ukraine": 2492,
    "tung": 2493,
    "carried": 2494,
    "\u00e4ndern": 2495,
    "E-@@": 2496,
    "ski": 2497,
    "ech@@": 2498,
    "por@@": 2499,
    "complex": 2500,
    "ak": 2501,
    "hal@@": 2502,
    "Mit@@": 2503,
    "enable": 2504,
    "gar": 2505,
    "nimmt": 2506,
    "Interessen": 2507,
    "soziale": 2508,
    "nuclear": 2509,
    "Team": 2510,
    "f\u00fcnf": 2511,
    "ore": 2512,
    "half": 2513,
    "bestehen": 2514,
    "sp\u00e4ter": 2515,
    "Bild": 2516,
    "ierte": 2517,
    "Familie": 2518,
    "whose": 2519,
    "Notwendigkeit": 2520,
    "amendment": 2521,
    "commitment": 2522,
    "ators": 2523,
    "dy": 2524,
    "lines": 2525,
    "Wert": 2526,
    "ven@@": 2527,
    "considered": 2528,
    "zusammen@@": 2529,
    "effects": 2530,
    "Now": 2531,
    "Therefore": 2532,
    "principles": 2533,
    "Zeitpunkt": 2534,
    "Gen@@": 2535,
    "Themen": 2536,
    "shown": 2537,
    "Server": 2538,
    "tionen": 2539,
    "ster@@": 2540,
    "mer": 2541,
    "\u00c4nderungen": 2542,
    "sorgen": 2543,
    "innovative": 2544,
    "har@@": 2545,
    "gl@@": 2546,
    "Spiel@@": 2547,
    "Web@@": 2548,
    "travel": 2549,
    "perhaps": 2550,
    "cur@@": 2551,
    "weise": 2552,
    "300": 2553,
    "ow@@": 2554,
    "Frankreich": 2555,
    "13@@": 2556,
    "meinem": 2557,
    "zun\u00e4chst": 2558,
    "City": 2559,
    "EL@@": 2560,
    "server": 2561,
    "Hand@@": 2562,
    "latest": 2563,
    "Lo@@": 2564,
    "Management": 2565,
    "tats\u00e4chlich": 2566,
    "UN@@": 2567,
    "Barcelona": 2568,
    "materials": 2569,
    "Tage": 2570,
    "EC@@": 2571,
    "possibility": 2572,
    "Erfahrung": 2573,
    "H": 2574,
    "setting": 2575,
    "Of": 2576,
    "schaft": 2577,
    "cu@@": 2578,
    "closed": 2579,
    "Organisation": 2580,
    "matters": 2581,
    "W\u00e4hrend": 2582,
    "tim@@": 2583,
    "ship": 2584,
    "nie": 2585,
    "Gesundheit": 2586,
    "Kultur": 2587,
    "Auswahl": 2588,
    "Kur@@": 2589,
    "former": 2590,
    "thanks": 2591,
    "anti@@": 2592,
    "Person": 2593,
    "verfahren": 2594,
    "forms": 2595,
    "}": 2596,
    "Herzen": 2597,
    "programm": 2598,
    "status": 2599,
    "angenommen": 2600,
    "ments": 2601,
    "Umgebung": 2602,
    "Dabei": 2603,
    "sites": 2604,
    "opportunities": 2605,
    "Sa@@": 2606,
    "easily": 2607,
    "cken": 2608,
    "came": 2609,
    "behind": 2610,
    "Mai": 2611,
    "Anfang": 2612,
    "previous": 2613,
    "Fahr@@": 2614,
    "First": 2615,
    "details": 2616,
    "video": 2617,
    "El@@": 2618,
    "double": 2619,
    "popular": 2620,
    "Spain": 2621,
    "accommodation": 2622,
    "ou": 2623,
    "Sozial@@": 2624,
    "weiter@@": 2625,
    "ins@@": 2626,
    "treffen": 2627,
    "pe@@": 2628,
    "actions": 2629,
    "increasing": 2630,
    "pressure": 2631,
    "reduce": 2632,
    "schriftlich": 2633,
    "AC@@": 2634,
    "0.@@": 2635,
    "promote": 2636,
    "comm@@": 2637,
    "speak": 2638,
    "gleich@@": 2639,
    "aspects": 2640,
    "response": 2641,
    "stark": 2642,
    "charge": 2643,
    "verstehen": 2644,
    "lediglich": 2645,
    "atmosphere": 2646,
    "fe": 2647,
    "reached": 2648,
    "hohen": 2649,
    "search": 2650,
    "sch": 2651,
    "bisher": 2652,
    "partner": 2653,
    "ino": 2654,
    "prepared": 2655,
    "ry": 2656,
    "ali@@": 2657,
    "providing": 2658,
    "remains": 2659,
    "\u2014": 2660,
    "Mitglied": 2661,
    "\u00e4u\u00dferst": 2662,
    "ess": 2663,
    "Einf\u00fchrung": 2664,
    "capacity": 2665,
    "\u00f6r@@": 2666,
    "Au@@": 2667,
    "Sk@@": 2668,
    "ay@@": 2669,
    "creation": 2670,
    "Africa": 2671,
    "heit": 2672,
    "joint": 2673,
    "Kampf": 2674,
    "Fach@@": 2675,
    "Juni": 2676,
    "gesamte": 2677,
    "Kl@@": 2678,
    "Article": 2679,
    "ants": 2680,
    "ps": 2681,
    "ite": 2682,
    "Gra@@": 2683,
    "1.": 2684,
    "ris@@": 2685,
    "sur@@": 2686,
    "eben": 2687,
    "Anzahl": 2688,
    "exchange": 2689,
    "az@@": 2690,
    "Meer": 2691,
    "Aktivit\u00e4ten": 2692,
    "billion": 2693,
    "oil": 2694,
    "lang": 2695,
    "external": 2696,
    "efficient": 2697,
    "somit": 2698,
    "produced": 2699,
    "British": 2700,
    "Umwelt": 2701,
    "Italy": 2702,
    "bringt": 2703,
    "ort": 2704,
    "submitted": 2705,
    "Also": 2706,
    "Museum": 2707,
    "commercial": 2708,
    "cher@@": 2709,
    "bestimmte": 2710,
    "bank": 2711,
    "limited": 2712,
    "Wachstum": 2713,
    "Wahl": 2714,
    "Sprache": 2715,
    "summer": 2716,
    "gem\u00e4\u00df": 2717,
    "gew\u00e4hrleisten": 2718,
    "industrial": 2719,
    "G\u00e4ste": 2720,
    "00@@": 2721,
    "Lebens@@": 2722,
    "supply": 2723,
    "Prozess": 2724,
    "gives": 2725,
    "uses": 2726,
    "falls": 2727,
    "Systems": 2728,
    "versuchen": 2729,
    "ums": 2730,
    "sm@@": 2731,
    "fallen": 2732,
    "sound": 2733,
    "op": 2734,
    "Wasser": 2735,
    "protect": 2736,
    "mel@@": 2737,
    "ces": 2738,
    "obwohl": 2739,
    "Integration": 2740,
    "mm": 2741,
    "link": 2742,
    "decided": 2743,
    "oren": 2744,
    "gesetzt": 2745,
    "Por@@": 2746,
    "funding": 2747,
    "supported": 2748,
    "Produktion": 2749,
    "scheint": 2750,
    "priority": 2751,
    "ther@@": 2752,
    "December": 2753,
    "fordern": 2754,
    "ub@@": 2755,
    "U": 2756,
    "\u0438@@": 2757,
    "cause": 2758,
    "del@@": 2759,
    "Hand": 2760,
    "vers@@": 2761,
    "leave": 2762,
    "La@@": 2763,
    "Amsterdam": 2764,
    "US-@@": 2765,
    "ton": 2766,
    "Convention": 2767,
    "bur@@": 2768,
    "follow": 2769,
    "bestimmten": 2770,
    "ban@@": 2771,
    "ving": 2772,
    "property": 2773,
    "safe": 2774,
    "restaurants": 2775,
    "Ta@@": 2776,
    "Raum": 2777,
    "island": 2778,
    "Zahl": 2779,
    "Dinge": 2780,
    "Preise": 2781,
    "Western": 2782,
    "Frei@@": 2783,
    "enlargement": 2784,
    "\u00dfen": 2785,
    "Op@@": 2786,
    "P-@@": 2787,
    "halte": 2788,
    "independent": 2789,
    "geh@@": 2790,
    "ie@@": 2791,
    "Kommissarin": 2792,
    "berg": 2793,
    "bad": 2794,
    "zahlreiche": 2795,
    "Fortschritte": 2796,
    "ierten": 2797,
    "produce": 2798,
    "Daten@@": 2799,
    "civil": 2800,
    "elt": 2801,
    "Ger@@": 2802,
    "Insel": 2803,
    "Bek\u00e4mpfung": 2804,
    "largest": 2805,
    "ill@@": 2806,
    "Bei@@": 2807,
    "pri@@": 2808,
    "zweite": 2809,
    "Natur": 2810,
    "35": 2811,
    "organisation": 2812,
    "Industrie": 2813,
    "similar": 2814,
    "kan@@": 2815,
    "option": 2816,
    "Hoch@@": 2817,
    "word": 2818,
    "Erachtens": 2819,
    "leicht": 2820,
    "hohe": 2821,
    "ee": 2822,
    "ss@@": 2823,
    "S-@@": 2824,
    "consumer": 2825,
    "ages": 2826,
    "assistance": 2827,
    "erster": 2828,
    "tik@@": 2829,
    "kt": 2830,
    "ausgestattet": 2831,
    "meines": 2832,
    "systeme": 2833,
    "gas": 2834,
    "CO@@": 2835,
    "Funktion": 2836,
    "instrument": 2837,
    "m\u00f6glichkeiten": 2838,
    "York": 2839,
    "verb@@": 2840,
    "mobile": 2841,
    "gr\u00f6\u00dften": 2842,
    "einschlie\u00dflich": 2843,
    "innen": 2844,
    "Spiel": 2845,
    "tet": 2846,
    "source": 2847,
    "log@@": 2848,
    "steps": 2849,
    "1998": 2850,
    "creating": 2851,
    "ism": 2852,
    "movement": 2853,
    "ek": 2854,
    "Services": 2855,
    "era": 2856,
    "platz": 2857,
    "apartment": 2858,
    "au\u00dferdem": 2859,
    "Entwicklungs@@": 2860,
    "lung": 2861,
    "Bestimmungen": 2862,
    "Einzel@@": 2863,
    "Erkl\u00e4rung": 2864,
    "Position": 2865,
    "pleased": 2866,
    "aufzu@@": 2867,
    "Jahrhundert": 2868,
    "March": 2869,
    "January": 2870,
    "Dezember": 2871,
    "Stelle": 2872,
    "Web": 2873,
    "bri@@": 2874,
    "solchen": 2875,
    "insgesamt": 2876,
    "rule": 2877,
    "UN": 2878,
    "brought": 2879,
    "variety": 2880,
    "weisen": 2881,
    "sagte": 2882,
    "dadurch": 2883,
    "regulations": 2884,
    "f\u00fchrung": 2885,
    "construction": 2886,
    "Gar@@": 2887,
    "General": 2888,
    "airport": 2889,
    "credit": 2890,
    "frei": 2891,
    "einzige": 2892,
    "weder": 2893,
    "hr@@": 2894,
    "ma\u00dfnahmen": 2895,
    "Handel": 2896,
    "Br@@": 2897,
    "vergangenen": 2898,
    "mein": 2899,
    "Do@@": 2900,
    "St.": 2901,
    "tt@@": 2902,
    "conference": 2903,
    "purpose": 2904,
    "October": 2905,
    "Dialog": 2906,
    "ourselves": 2907,
    "Chi@@": 2908,
    "zweiten": 2909,
    "j": 2910,
    "written": 2911,
    "Today": 2912,
    "message": 2913,
    "chen@@": 2914,
    "ay": 2915,
    "ler@@": 2916,
    "Nur": 2917,
    "Gi@@": 2918,
    ",000": 2919,
    "att@@": 2920,
    "activity": 2921,
    "stability": 2922,
    "Booking.com": 2923,
    "Mehrheit": 2924,
    "aufgenommen": 2925,
    "structure": 2926,
    "discussion": 2927,
    "lies": 2928,
    "teile": 2929,
    "ese": 2930,
    "became": 2931,
    "instruments": 2932,
    "Sal@@": 2933,
    "Reg@@": 2934,
    "instead": 2935,
    "leider": 2936,
    "abzu@@": 2937,
    "Gewalt": 2938,
    "distance": 2939,
    "Linux": 2940,
    "Anforderungen": 2941,
    "Entscheidungen": 2942,
    "hoch@@": 2943,
    "paid": 2944,
    "van": 2945,
    "aler": 2946,
    "ili@@": 2947,
    "Investitionen": 2948,
    "pa@@": 2949,
    "K\u00fcche": 2950,
    "Stunden": 2951,
    "alt": 2952,
    "relation": 2953,
    "Strand": 2954,
    "started": 2955,
    "\u00e4ren": 2956,
    "distribution": 2957,
    "Punkte": 2958,
    "study": 2959,
    "setzt": 2960,
    "interesting": 2961,
    "sei@@": 2962,
    "sieht": 2963,
    "Mal@@": 2964,
    "Vorschriften": 2965,
    "Kosovo": 2966,
    "23@@": 2967,
    "genie\u00dfen": 2968,
    "une": 2969,
    "rise": 2970,
    "ca.": 2971,
    "Aufmerksamkeit": 2972,
    "ines": 2973,
    "lau@@": 2974,
    "section": 2975,
    "allowed": 2976,
    "geschlossen": 2977,
    "click": 2978,
    "M\u00e4rz": 2979,
    "Gefahr": 2980,
    "document": 2981,
    "G\u00e4stebewertungen": 2982,
    "4.@@": 2983,
    "Party": 2984,
    "stra@@": 2985,
    "enti@@": 2986,
    "agenda": 2987,
    "ement": 2988,
    "fishing": 2989,
    "oll@@": 2990,
    "leisten": 2991,
    "Pal@@": 2992,
    "ah": 2993,
    "Energie": 2994,
    "Projekte": 2995,
    "giving": 2996,
    "ble": 2997,
    "lagen": 2998,
    "ju@@": 2999,
    "Grenzen": 3000,
    "film": 3001,
    "Handels@@": 3002,
    "can@@": 3003,
    "Republic": 3004,
    "bez\u00fcglich": 3005,
    "tool": 3006,
    "legislative": 3007,
    "Macht": 3008,
    "regards": 3009,
    "om": 3010,
    "Club": 3011,
    "quiet": 3012,
    "statement": 3013,
    "compromise": 3014,
    "re-@@": 3015,
    "Tro@@": 3016,
    "ai@@": 3017,
    "bevor": 3018,
    "payment": 3019,
    "Lei@@": 3020,
    "benefits": 3021,
    "schlie\u00dflich": 3022,
    "pass": 3023,
    "Bereiche": 3024,
    "base": 3025,
    "concept": 3026,
    "effort": 3027,
    "ll@@": 3028,
    "Center": 3029,
    "Development": 3030,
    "procedures": 3031,
    "During": 3032,
    "werk": 3033,
    "Villa": 3034,
    "konnten": 3035,
    "trans@@": 3036,
    "North": 3037,
    "Wi@@": 3038,
    "aktuellen": 3039,
    "Freiheit": 3040,
    "violence": 3041,
    "DE": 3042,
    "eingesetzt": 3043,
    "round": 3044,
    "neuer": 3045,
    "damage": 3046,
    "village": 3047,
    "Folgen": 3048,
    "weg": 3049,
    "ground": 3050,
    "zehn": 3051,
    "contribution": 3052,
    "tell": 3053,
    "Many": 3054,
    "imp@@": 3055,
    "Italian": 3056,
    "wenige": 3057,
    "historical": 3058,
    "July": 3059,
    "operation": 3060,
    "Nor@@": 3061,
    "eigentlich": 3062,
    "sent": 3063,
    "CD": 3064,
    "tig@@": 3065,
    "extra": 3066,
    "self-@@": 3067,
    "growing": 3068,
    "gr\u00f6\u00dfte": 3069,
    "met": 3070,
    "lic@@": 3071,
    "school": 3072,
    "item": 3073,
    "require": 3074,
    "getan": 3075,
    "Wettbewerb": 3076,
    "stri@@": 3077,
    "kosten": 3078,
    "Regeln": 3079,
    "bau@@": 3080,
    "tro@@": 3081,
    "Ben@@": 3082,
    "drive": 3083,
    "OS": 3084,
    "Ne@@": 3085,
    "ro": 3086,
    "Hotel@@": 3087,
    "Ac@@": 3088,
    "operating": 3089,
    "mann": 3090,
    "Spanish": 3091,
    "mittel": 3092,
    "26": 3093,
    "Landwirtschaft": 3094,
    "entsprechend": 3095,
    "documents": 3096,
    "sta@@": 3097,
    "Jo@@": 3098,
    "Anfrage": 3099,
    "wichtiger": 3100,
    "digital": 3101,
    "sports": 3102,
    "king": 3103,
    "mal@@": 3104,
    "Fr\u00fchst\u00fcck": 3105,
    "ben\u00f6tigen": 3106,
    "At@@": 3107,
    "integrated": 3108,
    "provisions": 3109,
    "Besch\u00e4ftigung": 3110,
    "ful": 3111,
    "Rights": 3112,
    "durchgef\u00fchrt": 3113,
    "ath@@": 3114,
    "emp@@": 3115,
    "Meine": 3116,
    "europ\u00e4ischer": 3117,
    "download": 3118,
    "fer": 3119,
    "Firma": 3120,
    "Bad": 3121,
    "tools": 3122,
    "task": 3123,
    "Oktober": 3124,
    "Reform": 3125,
    "28": 3126,
    "types": 3127,
    "na": 3128,
    "criteria": 3129,
    "kannst": 3130,
    "Portugal": 3131,
    "class": 3132,
    "Linie": 3133,
    "Zur": 3134,
    "happy": 3135,
    "Standpunkt": 3136,
    "express": 3137,
    "ste@@": 3138,
    "Pr\u00e4sidenten": 3139,
    "Bildung": 3140,
    "voll@@": 3141,
    "H\u00f6he": 3142,
    "changed": 3143,
    "Business": 3144,
    "So@@": 3145,
    "forces": 3146,
    "Du": 3147,
    "45": 3148,
    "Diskussion": 3149,
    "erwarten": 3150,
    "tics": 3151,
    "zer@@": 3152,
    "1,@@": 3153,
    "w\u00e4hlen": 3154,
    "Kor@@": 3155,
    "immediately": 3156,
    "Januar": 3157,
    "alternative": 3158,
    "box": 3159,
    "Site": 3160,
    "Nationen": 3161,
    "gefunden": 3162,
    "dung": 3163,
    "University": 3164,
    "got": 3165,
    "nor": 3166,
    "Although": 3167,
    "Gro\u00df@@": 3168,
    "build": 3169,
    "genannten": 3170,
    "challenges": 3171,
    "allein": 3172,
    "kurz": 3173,
    "zwei@@": 3174,
    "goes": 3175,
    "ulation": 3176,
    "six": 3177,
    "official": 3178,
    "Heute": 3179,
    "highest": 3180,
    "elements": 3181,
    "wer": 3182,
    "\u00fcr@@": 3183,
    "eher": 3184,
    "apartments": 3185,
    "alte": 3186,
    "Musik": 3187,
    "draft": 3188,
    "phone": 3189,
    "equal": 3190,
    "alit\u00e4t": 3191,
    "train": 3192,
    "Your": 3193,
    "IS": 3194,
    "od@@": 3195,
    "Gemeinschafts@@": 3196,
    "ihres": 3197,
    "Centre": 3198,
    "employees": 3199,
    "ser": 3200,
    "West": 3201,
    "col@@": 3202,
    "parking": 3203,
    "Berichts": 3204,
    "angesichts": 3205,
    "sofort": 3206,
    "transparency": 3207,
    "ably": 3208,
    "\u00f3@@": 3209,
    "sor@@": 3210,
    "zer": 3211,
    "helpful": 3212,
    "Tur@@": 3213,
    "annual": 3214,
    "zei@@": 3215,
    "Furthermore": 3216,
    "avoid": 3217,
    "Gr\u00fcnden": 3218,
    "Fehler": 3219,
    "Go@@": 3220,
    "lower": 3221,
    "star@@": 3222,
    "tor@@": 3223,
    "Transparenz": 3224,
    "reading": 3225,
    "ey": 3226,
    "friends": 3227,
    "Im@@": 3228,
    "Sache": 3229,
    "Flug@@": 3230,
    "ap": 3231,
    "gelten": 3232,
    "sed": 3233,
    "analysis": 3234,
    "Sinne": 3235,
    "\u00f6ffentliche": 3236,
    "Personal": 3237,
    "erk@@": 3238,
    "erneut": 3239,
    "daily": 3240,
    "Bem\u00fchungen": 3241,
    "Ak@@": 3242,
    "processes": 3243,
    "\u00d6ffentlichkeit": 3244,
    "applied": 3245,
    "begr\u00fc\u00dfe": 3246,
    "Ansatz": 3247,
    "offering": 3248,
    "numerous": 3249,
    "ll": 3250,
    "finally": 3251,
    "1997": 3252,
    "consequences": 3253,
    "iz@@": 3254,
    "elections": 3255,
    "teilen": 3256,
    "ien": 3257,
    "gro@@": 3258,
    "bathroom": 3259,
    "RO@@": 3260,
    "reality": 3261,
    "endlich": 3262,
    "Schlusselwortern": 3263,
    "Pr\u00e4sidentschaft": 3264,
    "schi@@": 3265,
    "Auffassung": 3266,
    "uni@@": 3267,
    "Sport@@": 3268,
    "nahe": 3269,
    "bau": 3270,
    "historic": 3271,
    "West@@": 3272,
    "geworden": 3273,
    "beh@@": 3274,
    "review": 3275,
    "poverty": 3276,
    "requires": 3277,
    "Bilder": 3278,
    "Flughafen": 3279,
    "He@@": 3280,
    "talk": 3281,
    "ics": 3282,
    "speed": 3283,
    "B.": 3284,
    "5.@@": 3285,
    "MP@@": 3286,
    "conflict": 3287,
    "beitragen": 3288,
    "Kraft": 3289,
    "efficiency": 3290,
    "labour": 3291,
    "beyond": 3292,
    "entsprechenden": 3293,
    "ini": 3294,
    "sport": 3295,
    "fort@@": 3296,
    "morgen": 3297,
    "offered": 3298,
    "Verkehrs@@": 3299,
    "gung": 3300,
    "lernen": 3301,
    "AD@@": 3302,
    "Urlaub": 3303,
    "tw@@": 3304,
    "Tor@@": 3305,
    "solidarity": 3306,
    "h\u00e4lt": 3307,
    "Kinder@@": 3308,
    "Restaurants": 3309,
    "diejenigen": 3310,
    "modified": 3311,
    "ungsp@@": 3312,
    "ismus": 3313,
    "li": 3314,
    "colleagues": 3315,
    "Ober@@": 3316,
    "F\u00e4llen": 3317,
    "fo@@": 3318,
    "late": 3319,
    "death": 3320,
    "lat@@": 3321,
    "saying": 3322,
    "medi@@": 3323,
    "genden": 3324,
    "Room": 3325,
    "Tr@@": 3326,
    "persons": 3327,
    "verhindern": 3328,
    "expect": 3329,
    "tions@@": 3330,
    "bes@@": 3331,
    "@": 3332,
    "Do": 3333,
    "Juli": 3334,
    "Dateien": 3335,
    "tisch": 3336,
    "wine": 3337,
    "poor": 3338,
    "star": 3339,
    "ideas": 3340,
    "Lin@@": 3341,
    "ast": 3342,
    "Druck": 3343,
    "paar": 3344,
    "behandelt": 3345,
    "Nat\u00fcrlich": 3346,
    "Monaten": 3347,
    "scher": 3348,
    "fine": 3349,
    "wanted": 3350,
    "implemented": 3351,
    "minimum": 3352,
    "useful": 3353,
    "port": 3354,
    "pen@@": 3355,
    "practical": 3356,
    "gew@@": 3357,
    "player": 3358,
    "published": 3359,
    "\u0441@@": 3360,
    "draw": 3361,
    "h\u00e4tten": 3362,
    "Even": 3363,
    "ots": 3364,
    "get@@": 3365,
    "Kultur@@": 3366,
    "clients": 3367,
    "freien": 3368,
    "zone": 3369,
    "Mediterranean": 3370,
    "mor@@": 3371,
    "the@@": 3372,
    "oben": 3373,
    "enst@@": 3374,
    "Comp@@": 3375,
    "shopping": 3376,
    "erfolgt": 3377,
    "See": 3378,
    "volle": 3379,
    "on-@@": 3380,
    "stre@@": 3381,
    "r\u00e4@@": 3382,
    "terrorism": 3383,
    "gem@@": 3384,
    "establish": 3385,
    "acc@@": 3386,
    "\u00df": 3387,
    "illegal": 3388,
    "congratulate": 3389,
    "tungs@@": 3390,
    "Tagen": 3391,
    "crucial": 3392,
    "Selbst@@": 3393,
    "Natur@@": 3394,
    "Atmosph\u00e4re": 3395,
    "Debian": 3396,
    "B\u00fcrgern": 3397,
    "tomorrow": 3398,
    "news": 3399,
    "WTO": 3400,
    "OR@@": 3401,
    "carry": 3402,
    "learn": 3403,
    "onen": 3404,
    "si": 3405,
    "secure": 3406,
    "weeks": 3407,
    "ber\u00fccksichtigt": 3408,
    "richtige": 3409,
    "sales": 3410,
    "Behandlung": 3411,
    "Dar@@": 3412,
    "\u00ad": 3413,
    "Tagesordnung": 3414,
    "To@@": 3415,
    "comprehensive": 3416,
    "ut": 3417,
    "Pl@@": 3418,
    "vergessen": 3419,
    "wieder@@": 3420,
    "Gesundheits@@": 3421,
    "Austria": 3422,
    "Tat": 3423,
    "transfer": 3424,
    "tiges": 3425,
    "ett@@": 3426,
    "lesen": 3427,
    "fu@@": 3428,
    "stimmen": 3429,
    "While": 3430,
    "net": 3431,
    "eter": 3432,
    "warum": 3433,
    "Nr.": 3434,
    "Den": 3435,
    "hinter": 3436,
    "lives": 3437,
    "anderem": 3438,
    "ical": 3439,
    "organisations": 3440,
    "besondere": 3441,
    "hoch": 3442,
    "minute": 3443,
    "hold": 3444,
    "reduction": 3445,
    "id@@": 3446,
    "starting": 3447,
    "options": 3448,
    "fa@@": 3449,
    "sometimes": 3450,
    "monitoring": 3451,
    "LE@@": 3452,
    "versucht": 3453,
    "maximum": 3454,
    "Microsoft": 3455,
    "machine": 3456,
    "deutschen": 3457,
    "Stadt@@": 3458,
    "modernen": 3459,
    "int@@": 3460,
    "3.@@": 3461,
    "frei@@": 3462,
    "B\u00fcrgerinnen": 3463,
    "ear@@": 3464,
    "stell@@": 3465,
    "ley": 3466,
    "Unter": 3467,
    "vertreten": 3468,
    "leaders": 3469,
    "assi@@": 3470,
    "reference": 3471,
    "zahlen": 3472,
    "morning": 3473,
    "ology": 3474,
    "sing": 3475,
    "cal": 3476,
    "\u00c4nderung": 3477,
    "A-@@": 3478,
    "bor@@": 3479,
    "technischen": 3480,
    "sal@@": 3481,
    "folgen": 3482,
    "reg@@": 3483,
    "probably": 3484,
    "Italien": 3485,
    "\u00fcberhaupt": 3486,
    "Gro@@": 3487,
    "worldwide": 3488,
    "ack@@": 3489,
    "Sicht": 3490,
    "Staats@@": 3491,
    "players": 3492,
    "sektor": 3493,
    "technologies": 3494,
    "Lissabon": 3495,
    "anything": 3496,
    "voting": 3497,
    "caused": 3498,
    "ely": 3499,
    "Lassen": 3500,
    "Har@@": 3501,
    "Basis": 3502,
    "Amendment": 3503,
    "gar@@": 3504,
    "alone": 3505,
    "schlie\u00dfen": 3506,
    "Le": 3507,
    "begin": 3508,
    "frage": 3509,
    "Republik": 3510,
    "challenge": 3511,
    "Is": 3512,
    "dec@@": 3513,
    "Chinese": 3514,
    "gef@@": 3515,
    "verantwortlich": 3516,
    "29": 3517,
    "month": 3518,
    "Viele": 3519,
    "historischen": 3520,
    "stands": 3521,
    "anders": 3522,
    "gabe": 3523,
    "Beginn": 3524,
    "barkeit": 3525,
    "treten": 3526,
    "ase": 3527,
    "plans": 3528,
    "beste": 3529,
    "Mag@@": 3530,
    "enz": 3531,
    "email": 3532,
    "interested": 3533,
    "tigung": 3534,
    "gesehen": 3535,
    "Aufenthalt": 3536,
    "erkl\u00e4rt": 3537,
    "una": 3538,
    "tiv@@": 3539,
    "Sti@@": 3540,
    "Ressourcen": 3541,
    "mp@@": 3542,
    "Dr.": 3543,
    "ven": 3544,
    "street": 3545,
    "Spanien": 3546,
    "h\u00e4ufig": 3547,
    "Fu@@": 3548,
    "iger": 3549,
    "erfolgreich": 3550,
    "Tre@@": 3551,
    "l\u00f6sen": 3552,
    "RA@@": 3553,
    "Vergangenheit": 3554,
    "neues": 3555,
    "Finanzierung": 3556,
    "200@@": 3557,
    "games": 3558,
    "head": 3559,
    "ready": 3560,
    "ron@@": 3561,
    "Kunst@@": 3562,
    "alisierung": 3563,
    "Rechtsvorschriften": 3564,
    "long-term": 3565,
    "chance": 3566,
    "gewesen": 3567,
    "bin@@": 3568,
    "vollst\u00e4ndig": 3569,
    "Konferenz": 3570,
    "languages": 3571,
    "Gesamt@@": 3572,
    "zahlreichen": 3573,
    "Luft@@": 3574,
    "Technologie": 3575,
    "erwartet": 3576,
    "con": 3577,
    "Bundes@@": 3578,
    "mountain": 3579,
    "win@@": 3580,
    "Wochen": 3581,
    "Datei": 3582,
    "\u00e4re": 3583,
    "ir": 3584,
    "ada": 3585,
    "waste": 3586,
    "anischen": 3587,
    "jeweiligen": 3588,
    "welches": 3589,
    "child": 3590,
    "Berg@@": 3591,
    "Wahl@@": 3592,
    "erf\u00fcllen": 3593,
    "ls": 3594,
    "Zweitens": 3595,
    "farmers": 3596,
    "cities": 3597,
    "gn@@": 3598,
    "thought": 3599,
    "IM@@": 3600,
    "Airport": 3601,
    "#": 3602,
    "Bal@@": 3603,
    "gli@@": 3604,
    "super@@": 3605,
    "cut": 3606,
    "wahrscheinlich": 3607,
    "Gruppen": 3608,
    "unten": 3609,
    "Forschungs@@": 3610,
    "2-@@": 3611,
    "wal@@": 3612,
    "Erfahrungen": 3613,
    "braucht": 3614,
    "ously": 3615,
    "release": 3616,
    "asi@@": 3617,
    "endes": 3618,
    "banks": 3619,
    "1996": 3620,
    "Thank": 3621,
    "ET@@": 3622,
    "Moreover": 3623,
    "lost": 3624,
    "Fund": 3625,
    "worked": 3626,
    "\u00b4": 3627,
    "Ur@@": 3628,
    "I-@@": 3629,
    "Wel@@": 3630,
    "garden": 3631,
    "sts": 3632,
    "Schritte": 3633,
    "extent": 3634,
    "stelle": 3635,
    "EC": 3636,
    "geschaffen": 3637,
    "Mess@@": 3638,
    "FR": 3639,
    "ures": 3640,
    "methods": 3641,
    "Ku@@": 3642,
    "US@@": 3643,
    "Vertrauen": 3644,
    "ord@@": 3645,
    "zumindest": 3646,
    "Inhalt": 3647,
    "legt": 3648,
    "1-@@": 3649,
    "relating": 3650,
    "Conference": 3651,
    "selection": 3652,
    "accession": 3653,
    "businesses": 3654,
    "stets": 3655,
    "Werte": 3656,
    "accordance": 3657,
    "genutzt": 3658,
    "advantage": 3659,
    "scientific": 3660,
    "images": 3661,
    "method": 3662,
    "sch\u00fctzen": 3663,
    "mention": 3664,
    "walking": 3665,
    "sectors": 3666,
    "verpflichtet": 3667,
    "genug": 3668,
    "comfort": 3669,
    "strategic": 3670,
    "loss": 3671,
    "Ti@@": 3672,
    "green": 3673,
    "Aspekte": 3674,
    "Mittel@@": 3675,
    "au\u00dferhalb": 3676,
    "Energi@@": 3677,
    "Herausforderungen": 3678,
    "inn@@": 3679,
    "31": 3680,
    "Ho@@": 3681,
    "zeit@@": 3682,
    "z.": 3683,
    "powers": 3684,
    "tors": 3685,
    "fields": 3686,
    "st\u00e4ndig": 3687,
    "despite": 3688,
    "kennen": 3689,
    "ame": 3690,
    "Directive": 3691,
    "Not": 3692,
    "processing": 3693,
    "kam": 3694,
    "folgt": 3695,
    "Einige": 3696,
    "influence": 3697,
    "Mat@@": 3698,
    "Allerdings": 3699,
    "32": 3700,
    "harmon@@": 3701,
    "5-@@": 3702,
    "heutigen": 3703,
    "denken": 3704,
    "reichen": 3705,
    "schaften": 3706,
    "Russian": 3707,
    "Wein@@": 3708,
    "yp@@": 3709,
    "seines": 3710,
    "Angelegenheit": 3711,
    "Dazu": 3712,
    "privaten": 3713,
    "bs": 3714,
    "atic": 3715,
    "Bur@@": 3716,
    "letzte": 3717,
    "plant": 3718,
    "Beg@@": 3719,
    "fish": 3720,
    "motion": 3721,
    "ass": 3722,
    "visitors": 3723,
    "uss@@": 3724,
    "menu": 3725,
    "raised": 3726,
    "h\u00f6ren": 3727,
    "alis@@": 3728,
    "ig": 3729,
    "Benutzer": 3730,
    "art@@": 3731,
    "Fi@@": 3732,
    "innovation": 3733,
    "Kunden@@": 3734,
    "San@@": 3735,
    "amerikanischen": 3736,
    "Ireland": 3737,
    "pers\u00f6nlichen": 3738,
    "cli@@": 3739,
    "Wohn@@": 3740,
    "ue": 3741,
    "Security": 3742,
    "\u0432@@": 3743,
    "25@@": 3744,
    "Only": 3745,
    "separate": 3746,
    "Geb\u00e4ude": 3747,
    "erlaubt": 3748,
    "bessere": 3749,
    "Public": 3750,
    "trying": 3751,
    "beg@@": 3752,
    "post@@": 3753,
    "doubt": 3754,
    "Produkt@@": 3755,
    "\u00e8@@": 3756,
    "Parteien": 3757,
    "Schwierigkeiten": 3758,
    "ian": 3759,
    "trotz": 3760,
    "Obwohl": 3761,
    "accepted": 3762,
    "laufen": 3763,
    "Berichterstatterin": 3764,
    "implement": 3765,
    "absolutely": 3766,
    "Google": 3767,
    "Besch@@": 3768,
    "join": 3769,
    "Ser@@": 3770,
    "Falls": 3771,
    "sechs": 3772,
    "fil@@": 3773,
    "\u00d6@@": 3774,
    "ausschlie\u00dflich": 3775,
    "regime": 3776,
    "75": 3777,
    "Star": 3778,
    "automatisch": 3779,
    "Staat": 3780,
    "gten": 3781,
    "Spieler": 3782,
    "Sonder@@": 3783,
    "bilden": 3784,
    "\u2122": 3785,
    "demands": 3786,
    "justice": 3787,
    "Neben": 3788,
    "folgenden": 3789,
    "det@@": 3790,
    "Arbeitnehmer": 3791,
    "\u00b0": 3792,
    "zed": 3793,
    "Hinsicht": 3794,
    "vollen": 3795,
    "affected": 3796,
    "Min@@": 3797,
    "vis@@": 3798,
    "ssen": 3799,
    "Secondly": 3800,
    "overall": 3801,
    "Dann": 3802,
    "UK": 3803,
    "Wer": 3804,
    "scope": 3805,
    "critical": 3806,
    "\u00dfe": 3807,
    "schwer": 3808,
    "borders": 3809,
    "\u00b2": 3810,
    "negative": 3811,
    "Milliarden": 3812,
    "placed": 3813,
    "\u0435@@": 3814,
    "Ihres": 3815,
    "moderne": 3816,
    "map": 3817,
    "burg": 3818,
    "\u00fcn@@": 3819,
    "demokratischen": 3820,
    "verkehr": 3821,
    "Folge": 3822,
    "Einrichtung": 3823,
    "cover": 3824,
    "cre@@": 3825,
    "einge@@": 3826,
    "More": 3827,
    "far@@": 3828,
    "Praxis": 3829,
    "ach": 3830,
    "Krieg": 3831,
    "swimming": 3832,
    "syn@@": 3833,
    "gekommen": 3834,
    "oo@@": 3835,
    "raum": 3836,
    "contract": 3837,
    "ns": 3838,
    "Vertreter": 3839,
    "yourself": 3840,
    "Prozent": 3841,
    "ella": 3842,
    "\u00fcbernehmen": 3843,
    "entscheiden": 3844,
    "intended": 3845,
    "Free": 3846,
    "e-mail": 3847,
    "zudem": 3848,
    "aff@@": 3849,
    "Its": 3850,
    "running": 3851,
    "usually": 3852,
    "getting": 3853,
    "SP@@": 3854,
    "edi@@": 3855,
    "wert": 3856,
    "EM@@": 3857,
    "Denn": 3858,
    "bitten": 3859,
    "\u043e@@": 3860,
    "Wunsch": 3861,
    "30@@": 3862,
    "Angelegenheiten": 3863,
    "vol@@": 3864,
    "Arbeitspl\u00e4tze": 3865,
    "r\u00fc@@": 3866,
    "neu@@": 3867,
    "beide": 3868,
    "flexible": 3869,
    "erinnern": 3870,
    "Grand": 3871,
    "Cas@@": 3872,
    "Computer": 3873,
    "heard": 3874,
    "anti-@@": 3875,
    "Opfer": 3876,
    "Instrument": 3877,
    "target": 3878,
    "calls": 3879,
    "love": 3880,
    "suitable": 3881,
    "Indeed": 3882,
    "Aufgaben": 3883,
    "bewusst": 3884,
    "Afghanistan": 3885,
    "\u0430@@": 3886,
    "hor@@": 3887,
    "reforms": 3888,
    "tel@@": 3889,
    "Nord@@": 3890,
    "Station": 3891,
    "Red": 3892,
    "not@@": 3893,
    "Privat@@": 3894,
    "begr\u00fc\u00dfen": 3895,
    "Solidarit\u00e4t": 3896,
    "deine": 3897,
    "adopt": 3898,
    "kaum": 3899,
    "warm": 3900,
    "Preis@@": 3901,
    "currency": 3902,
    "arbeit": 3903,
    "oni@@": 3904,
    "sa": 3905,
    "gang": 3906,
    "relationship": 3907,
    "SA@@": 3908,
    "char@@": 3909,
    "erg@@": 3910,
    "mainly": 3911,
    "evening": 3912,
    "allgemeinen": 3913,
    "usw.": 3914,
    "Frieden": 3915,
    "administration": 3916,
    "rich@@": 3917,
    "laden": 3918,
    "initiatives": 3919,
    "committed": 3920,
    "Z": 3921,
    "erkennen": 3922,
    "offen": 3923,
    "namely": 3924,
    "son@@": 3925,
    "Systeme": 3926,
    "increasingly": 3927,
    "Ju@@": 3928,
    "Pre@@": 3929,
    "Organisationen": 3930,
    "gelegen": 3931,
    "fac@@": 3932,
    "gebiet": 3933,
    "our@@": 3934,
    "cl@@": 3935,
    "Hel@@": 3936,
    "Armut": 3937,
    "opening": 3938,
    "President-in-Office": 3939,
    "representatives": 3940,
    "freuen": 3941,
    "installation": 3942,
    "terrace": 3943,
    "maintain": 3944,
    "Annahme": 3945,
    "gender": 3946,
    "expressed": 3947,
    "El": 3948,
    "traffic": 3949,
    "bil@@": 3950,
    "vital": 3951,
    "3-@@": 3952,
    "laws": 3953,
    "planning": 3954,
    "Leute": 3955,
    "opp@@": 3956,
    "Bus@@": 3957,
    "normal": 3958,
    "talking": 3959,
    "etc.": 3960,
    "Bet@@": 3961,
    "border": 3962,
    "ft@@": 3963,
    "l\u00e4nder": 3964,
    "Fest@@": 3965,
    "proper": 3966,
    "union": 3967,
    "st\u00e4rker": 3968,
    "6.@@": 3969,
    "Nun": 3970,
    "uli@@": 3971,
    "All@@": 3972,
    "Erstens": 3973,
    "ion": 3974,
    "freie": 3975,
    "bald": 3976,
    "\u00e1": 3977,
    "structural": 3978,
    "darstellt": 3979,
    "ational": 3980,
    "Verfassung": 3981,
    "zation": 3982,
    "gr\u00f6\u00dfere": 3983,
    "mission": 3984,
    "born": 3985,
    "stress": 3986,
    "improved": 3987,
    "benutzt": 3988,
    "Mu@@": 3989,
    "Zusammen@@": 3990,
    "students": 3991,
    "vorgeschlagen": 3992,
    "Bri@@": 3993,
    "eindeutig": 3994,
    "ara": 3995,
    "Karte": 3996,
    "families": 3997,
    "approved": 3998,
    "nu@@": 3999,
    "Agenda": 4000,
    "Trans@@": 4001,
    "inf@@": 4002,
    "Sitzung": 4003,
    "tal@@": 4004,
    "ture": 4005,
    "Col@@": 4006,
    "goal": 4007,
    "elles": 4008,
    "danke": 4009,
    "ide@@": 4010,
    "correct": 4011,
    "automatically": 4012,
    "plus": 4013,
    "tigkeit": 4014,
    "gende": 4015,
    "Verpflichtungen": 4016,
    "Met@@": 4017,
    "nationale": 4018,
    "comments": 4019,
    "zus\u00e4tzliche": 4020,
    "Hause": 4021,
    "Win@@": 4022,
    "Wieder@@": 4023,
    "CH@@": 4024,
    "competitive": 4025,
    "powerful": 4026,
    "serve": 4027,
    "zeiten": 4028,
    "rechte": 4029,
    "People": 4030,
    "Zeit@@": 4031,
    "Anstrengungen": 4032,
    "Falle": 4033,
    "chtung": 4034,
    "industrie": 4035,
    "Online-@@": 4036,
    "confidence": 4037,
    "tourist": 4038,
    "le-@@": 4039,
    "stellung": 4040,
    "Funktionen": 4041,
    "DVD": 4042,
    "Costa": 4043,
    "Idee": 4044,
    "infrastructure": 4045,
    "reduced": 4046,
    "Iraq": 4047,
    "unbedingt": 4048,
    "globalen": 4049,
    "India": 4050,
    "fra@@": 4051,
    "ov@@": 4052,
    "decide": 4053,
    "-T@@": 4054,
    "za": 4055,
    "beginnen": 4056,
    "fre@@": 4057,
    "schreiben": 4058,
    "delivery": 4059,
    "feature": 4060,
    "tation": 4061,
    "Protokoll": 4062,
    "wider@@": 4063,
    "entspricht": 4064,
    "rechts": 4065,
    "unemployment": 4066,
    "Produktions@@": 4067,
    "\u00fcberzeugt": 4068,
    "protected": 4069,
    "Enterprise": 4070,
    "Kriterien": 4071,
    "lag@@": 4072,
    "photo": 4073,
    "Partei": 4074,
    "collection": 4075,
    "aktuelle": 4076,
    "administrative": 4077,
    "supports": 4078,
    "cohesion": 4079,
    "anten": 4080,
    "Zustimmung": 4081,
    "Wahlen": 4082,
    "Em@@": 4083,
    "alism": 4084,
    "400": 4085,
    "dan@@": 4086,
    "gesprochen": 4087,
    "\u0161@@": 4088,
    "4-@@": 4089,
    "amen": 4090,
    "began": 4091,
    "hol@@": 4092,
    "extensive": 4093,
    "format": 4094,
    "covered": 4095,
    "sources": 4096,
    "mindestens": 4097,
    "ve@@": 4098,
    "Mark@@": 4099,
    "emissions": 4100,
    "served": 4101,
    "Informations@@": 4102,
    "senden": 4103,
    "conclusion": 4104,
    "circumstances": 4105,
    "gleiche": 4106,
    "Ist": 4107,
    "Wann": 4108,
    "ado": 4109,
    "Nations": 4110,
    "Cre@@": 4111,
    "founded": 4112,
    "Vereinbarung": 4113,
    "ani@@": 4114,
    "\u00c4@@": 4115,
    "Verwaltung": 4116,
    "well-@@": 4117,
    "mark": 4118,
    "contribute": 4119,
    "01": 4120,
    "stand@@": 4121,
    "fol@@": 4122,
    "worth": 4123,
    "Osten": 4124,
    "Me@@": 4125,
    "tour": 4126,
    "Reformen": 4127,
    "bra@@": 4128,
    "ehr@@": 4129,
    "functions": 4130,
    "ash@@": 4131,
    "pleasant": 4132,
    "gezeigt": 4133,
    "igen": 4134,
    "ends": 4135,
    "Office": 4136,
    "Tier@@": 4137,
    "genannt": 4138,
    "ai": 4139,
    "Sub@@": 4140,
    "priorities": 4141,
    "vorgelegt": 4142,
    "zug": 4143,
    "AM@@": 4144,
    "electronic": 4145,
    "financing": 4146,
    "likely": 4147,
    "selbstverst\u00e4ndlich": 4148,
    "generation": 4149,
    "unterschiedlichen": 4150,
    "ante": 4151,
    "introduced": 4152,
    "ank@@": 4153,
    "UR@@": 4154,
    "Ap@@": 4155,
    "defined": 4156,
    "Terrorismus": 4157,
    "EL": 4158,
    "Au\u00dfen@@": 4159,
    "else": 4160,
    "Dem@@": 4161,
    "Vorteile": 4162,
    "screen": 4163,
    "Rec@@": 4164,
    "stable": 4165,
    "prozess": 4166,
    "sions": 4167,
    "Gipfel": 4168,
    "Not@@": 4169,
    "schutz": 4170,
    "ban": 4171,
    "gend": 4172,
    "Just": 4173,
    "Sol@@": 4174,
    "larger": 4175,
    "effectively": 4176,
    "ya": 4177,
    "entsprechende": 4178,
    "lin": 4179,
    "Anerkennung": 4180,
    "getroffen": 4181,
    "Each": 4182,
    "pr\u00fcfen": 4183,
    "white": 4184,
    "encourage": 4185,
    "speaking": 4186,
    "says": 4187,
    "glauben": 4188,
    "Bas@@": 4189,
    "rep@@": 4190,
    "Pr\u00e4@@": 4191,
    "understanding": 4192,
    "dra@@": 4193,
    "Greece": 4194,
    "Inhalte": 4195,
    "ensuring": 4196,
    "dringend": 4197,
    "Hor@@": 4198,
    "Sur@@": 4199,
    "Eur@@": 4200,
    "DI@@": 4201,
    "Val@@": 4202,
    "off@@": 4203,
    "exist": 4204,
    "Qualit\u00e4ts@@": 4205,
    "Produkten": 4206,
    "nisse": 4207,
    "crime": 4208,
    "erw\u00e4hnt": 4209,
    "mehreren": 4210,
    "Code": 4211,
    "Technologien": 4212,
    "Schul@@": 4213,
    "risks": 4214,
    "verf\u00fcgbar": 4215,
    "Stabilit\u00e4t": 4216,
    "150": 4217,
    "w\u00fcnschen": 4218,
    "managed": 4219,
    "gerecht": 4220,
    "Cal@@": 4221,
    "itt@@": 4222,
    "Haushalt": 4223,
    "Bor@@": 4224,
    "positions": 4225,
    "Homepage": 4226,
    "track": 4227,
    "Binnenmarkt": 4228,
    "min": 4229,
    "in-@@": 4230,
    "Kern@@": 4231,
    "vel@@": 4232,
    "Mc@@": 4233,
    "nahme": 4234,
    "whom": 4235,
    "Hu@@": 4236,
    "listed": 4237,
    "Stra\u00dfe": 4238,
    "opened": 4239,
    "tliche": 4240,
    "Swiss": 4241,
    "50@@": 4242,
    "Besuch": 4243,
    "PL": 4244,
    "Asia": 4245,
    "Standard": 4246,
    "War": 4247,
    "ars": 4248,
    "victims": 4249,
    "dro@@": 4250,
    "sol@@": 4251,
    "ff": 4252,
    "wonderful": 4253,
    "detailed": 4254,
    "played": 4255,
    "etten": 4256,
    "entry": 4257,
    "mittel@@": 4258,
    "wesentlich": 4259,
    "Zudem": 4260,
    "Produkt": 4261,
    "pe": 4262,
    "Ausschu\u00df": 4263,
    "Wer@@": 4264,
    "participation": 4265,
    "Why": 4266,
    "optim@@": 4267,
    "....": 4268,
    "2020": 4269,
    "tabled": 4270,
    "appear": 4271,
    "kre@@": 4272,
    "E-Mail": 4273,
    "langen": 4274,
    "aufge@@": 4275,
    "pat@@": 4276,
    "ss": 4277,
    "wo@@": 4278,
    "fahr@@": 4279,
    "ber\u00fccksichtigen": 4280,
    "eck@@": 4281,
    "erfahren": 4282,
    "agriculture": 4283,
    "hoffen": 4284,
    "programs": 4285,
    "digen": 4286,
    "IL@@": 4287,
    "tru@@": 4288,
    "Schlie\u00dflich": 4289,
    "\u00dcber": 4290,
    "record": 4291,
    "animals": 4292,
    "referred": 4293,
    "wrong": 4294,
    "Sommer": 4295,
    "gre@@": 4296,
    "hinweisen": 4297,
    "nachdem": 4298,
    "discuss": 4299,
    "ice": 4300,
    "Volk": 4301,
    "camera": 4302,
    "kommenden": 4303,
    "mm@@": 4304,
    "paper": 4305,
    "akzeptieren": 4306,
    "exactly": 4307,
    "Frankfurt": 4308,
    "sis": 4309,
    "stated": 4310,
    "m\u00f6glicherweise": 4311,
    "debt": 4312,
    "transparent": 4313,
    "bestimmt": 4314,
    "De": 4315,
    "manner": 4316,
    "1995": 4317,
    "Zun\u00e4chst": 4318,
    "specifically": 4319,
    "Then": 4320,
    "sitting": 4321,
    "air@@": 4322,
    "limit": 4323,
    "becoming": 4324,
    "tigt": 4325,
    "won": 4326,
    "Schw@@": 4327,
    "exp@@": 4328,
    "Durchf\u00fchrung": 4329,
    "ire": 4330,
    "ish": 4331,
    "regular": 4332,
    "aimed": 4333,
    "Mitteilung": 4334,
    "partnership": 4335,
    "income": 4336,
    "selected": 4337,
    "expected": 4338,
    "it\u00e4t": 4339,
    "purposes": 4340,
    "heraus@@": 4341,
    "D-@@": 4342,
    "beds": 4343,
    "stat@@": 4344,
    "Plan": 4345,
    "aktiv": 4346,
    "rat": 4347,
    "benutzen": 4348,
    "ME@@": 4349,
    "metres": 4350,
    "back@@": 4351,
    "wa@@": 4352,
    "linked": 4353,
    "February": 4354,
    "Gel@@": 4355,
    "erzielt": 4356,
    "wants": 4357,
    "hen": 4358,
    "votes": 4359,
    "Bild@@": 4360,
    "represents": 4361,
    "developments": 4362,
    "ha": 4363,
    "\u00e9s": 4364,
    "rural": 4365,
    "discussed": 4366,
    "sicherzustellen": 4367,
    "Chance": 4368,
    "work@@": 4369,
    "bestehenden": 4370,
    "gelegt": 4371,
    "Anwendungen": 4372,
    "door": 4373,
    "pr\u00e4@@": 4374,
    "Fin@@": 4375,
    "besonderen": 4376,
    "measure": 4377,
    "markt": 4378,
    "chts@@": 4379,
    "Augen": 4380,
    "zes": 4381,
    "assessment": 4382,
    "nt": 4383,
    "ex": 4384,
    "Autom@@": 4385,
    "sec@@": 4386,
    "Medien": 4387,
    "Sea": 4388,
    "went": 4389,
    "Nicht": 4390,
    "Fre@@": 4391,
    "unver@@": 4392,
    "richten": 4393,
    "discussions": 4394,
    "ato": 4395,
    "zentrum": 4396,
    "dienen": 4397,
    "lem@@": 4398,
    "bal@@": 4399,
    "Unterkategorien": 4400,
    "eth@@": 4401,
    "hot": 4402,
    "pol@@": 4403,
    "scale": 4404,
    "Suche": 4405,
    "euch": 4406,
    "marketing": 4407,
    "ge\u00e4ndert": 4408,
    "tradition": 4409,
    "hab@@": 4410,
    "warten": 4411,
    "sub-categories": 4412,
    "\u0442@@": 4413,
    "adi@@": 4414,
    "thousands": 4415,
    "technische": 4416,
    "nis": 4417,
    "siehe": 4418,
    "precisely": 4419,
    "Einrichtungen": 4420,
    "tr\u00e4gt": 4421,
    "ID@@": 4422,
    "spor@@": 4423,
    "bedarf": 4424,
    "DA@@": 4425,
    "fellow": 4426,
    "Apartments": 4427,
    "police": 4428,
    "Rooms": 4429,
    "ener": 4430,
    "spacious": 4431,
    "inside": 4432,
    "Sen@@": 4433,
    "shop": 4434,
    "m\u00f6glichen": 4435,
    "sufficient": 4436,
    "cs": 4437,
    "Nutzen": 4438,
    "umgesetzt": 4439,
    "plat@@": 4440,
    "arbeitet": 4441,
    "spend": 4442,
    "Wettbewerbsf\u00e4higkeit": 4443,
    "Del@@": 4444,
    "Sektor": 4445,
    "zuletzt": 4446,
    "medical": 4447,
    "vari@@": 4448,
    "person@@": 4449,
    "ark@@": 4450,
    "enterprises": 4451,
    "Haltung": 4452,
    "Str@@": 4453,
    "otherwise": 4454,
    "yn@@": 4455,
    "je@@": 4456,
    "Te@@": 4457,
    "introduction": 4458,
    "sign": 4459,
    "Standards": 4460,
    "Ph@@": 4461,
    "LA@@": 4462,
    "earlier": 4463,
    "wenden": 4464,
    "notwendigen": 4465,
    "kur@@": 4466,
    "kitchen": 4467,
    "playing": 4468,
    "finanziellen": 4469,
    "operations": 4470,
    "Kontakt": 4471,
    "essen": 4472,
    "fahrt": 4473,
    "client": 4474,
    "Kunst": 4475,
    "Social": 4476,
    "Char@@": 4477,
    "uren": 4478,
    "followed": 4479,
    "Middle": 4480,
    "erungs@@": 4481,
    "Agreement": 4482,
    "Kal@@": 4483,
    "dient": 4484,
    "exclusive": 4485,
    "budgetary": 4486,
    "stoffe": 4487,
    "\u043b@@": 4488,
    "Zeichen": 4489,
    "achten": 4490,
    "Einfluss": 4491,
    "connected": 4492,
    "facing": 4493,
    "pan@@": 4494,
    "sion@@": 4495,
    "elegant": 4496,
    "closely": 4497,
    "Monate": 4498,
    "erf\u00fcllt": 4499,
    "Board": 4500,
    "acts": 4501,
    "Ausbildung": 4502,
    "ently": 4503,
    "winter": 4504,
    "anderes": 4505,
    "represent": 4506,
    "fresh": 4507,
    "eingerichtet": 4508,
    "losen": 4509,
    "jene": 4510,
    "eli@@": 4511,
    "stu@@": 4512,
    "l\u00e4@@": 4513,
    "co-@@": 4514,
    "tional": 4515,
    "NATO": 4516,
    "path": 4517,
    "considerable": 4518,
    "nis@@": 4519,
    "festgelegt": 4520,
    "strengthen": 4521,
    "rit@@": 4522,
    "jederzeit": 4523,
    "voller": 4524,
    "buildings": 4525,
    "Kat@@": 4526,
    "ergreifen": 4527,
    "Most": 4528,
    "vermeiden": 4529,
    "klicken": 4530,
    "Best": 4531,
    "Switzerland": 4532,
    "select": 4533,
    "Des@@": 4534,
    "Christian": 4535,
    "hour": 4536,
    "nor@@": 4537,
    "happen": 4538,
    "24@@": 4539,
    "\u0434@@": 4540,
    "Pol@@": 4541,
    "beziehen": 4542,
    "alismus": 4543,
    "Green": 4544,
    "She": 4545,
    "Super@@": 4546,
    "ists": 4547,
    "institutional": 4548,
    "save": 4549,
    "stimme": 4550,
    "degree": 4551,
    "Kindern": 4552,
    "Wor@@": 4553,
    "Anspruch": 4554,
    "shops": 4555,
    "supporting": 4556,
    "fe@@": 4557,
    "ungs-": 4558,
    "darunter": 4559,
    "teil": 4560,
    "haus": 4561,
    "John": 4562,
    "cy@@": 4563,
    "tical": 4564,
    "guidelines": 4565,
    "hervor@@": 4566,
    "shower": 4567,
    "ester": 4568,
    "ingly": 4569,
    "Cam@@": 4570,
    "reisen": 4571,
    "geeignet": 4572,
    "Anti@@": 4573,
    "liber@@": 4574,
    "Film": 4575,
    "season": 4576,
    "verfolgen": 4577,
    "Schutz@@": 4578,
    "Vielfalt": 4579,
    "r\u00fcck@@": 4580,
    "en-": 4581,
    "Meter": 4582,
    "so-called": 4583,
    "Tran@@": 4584,
    "discrimination": 4585,
    "Human": 4586,
    "ige": 4587,
    "shi@@": 4588,
    "C-@@": 4589,
    "wahr@@": 4590,
    "chs": 4591,
    "rin@@": 4592,
    "jeweils": 4593,
    "tlich": 4594,
    "Innovation": 4595,
    "immigration": 4596,
    "purchase": 4597,
    "improving": 4598,
    "remember": 4599,
    "\u00e4u@@": 4600,
    "Vol@@": 4601,
    "networks": 4602,
    "Menge": 4603,
    "cat@@": 4604,
    "ON@@": 4605,
    "telephone": 4606,
    "High": 4607,
    "au\u00dfer": 4608,
    "fying": 4609,
    "IP": 4610,
    "gan@@": 4611,
    "7.@@": 4612,
    "\u00dc@@": 4613,
    "components": 4614,
    "bek@@": 4615,
    "tures": 4616,
    "gte": 4617,
    "handeln": 4618,
    "angezeigt": 4619,
    "Roma": 4620,
    "mark@@": 4621,
    "erh\u00f6hen": 4622,
    "Video": 4623,
    "speech": 4624,
    "sicherheit": 4625,
    "sicherlich": 4626,
    "hear": 4627,
    "daten": 4628,
    "Policy": 4629,
    "\u00fcbernachten": 4630,
    "Konzept": 4631,
    "erzielen": 4632,
    "His": 4633,
    "Schweiz": 4634,
    "experts": 4635,
    "tungen": 4636,
    "Webseite": 4637,
    "Ha@@": 4638,
    "http": 4639,
    "broad": 4640,
    "welcher": 4641,
    "Czech": 4642,
    "average": 4643,
    "fun": 4644,
    "Pri@@": 4645,
    "entschieden": 4646,
    "Leistungen": 4647,
    "teilweise": 4648,
    "Mis@@": 4649,
    "Vertrags": 4650,
    "cuisine": 4651,
    "cards": 4652,
    "element": 4653,
    "Ski@@": 4654,
    "Medi@@": 4655,
    "bro@@": 4656,
    ",@@": 4657,
    "buy": 4658,
    "cap@@": 4659,
    "&apos;ll": 4660,
    "speci@@": 4661,
    "ik": 4662,
    "entweder": 4663,
    "funktioniert": 4664,
    "e.g.": 4665,
    "Spa": 4666,
    "fied": 4667,
    "tic@@": 4668,
    "thinking": 4669,
    "plants": 4670,
    "Familien": 4671,
    "gelangen": 4672,
    "typical": 4673,
    "Pa@@": 4674,
    "besuchen": 4675,
    "Uni@@": 4676,
    "hon@@": 4677,
    "tik": 4678,
    "ory": 4679,
    "Res@@": 4680,
    "spricht": 4681,
    "teil@@": 4682,
    "ically": 4683,
    "spielt": 4684,
    "Stand": 4685,
    "Post@@": 4686,
    "abge@@": 4687,
    "ole": 4688,
    "suggest": 4689,
    "tourism": 4690,
    "Installation": 4691,
    "sting": 4692,
    "pu@@": 4693,
    "politischer": 4694,
    "w\u00e4ren": 4695,
    "verbessert": 4696,
    "gave": 4697,
    "seem": 4698,
    "sted": 4699,
    "Economic": 4700,
    "trust": 4701,
    "inen": 4702,
    "2011": 4703,
    "ki": 4704,
    "properly": 4705,
    "Fischerei@@": 4706,
    "Ei@@": 4707,
    "Sprachen": 4708,
    "web@@": 4709,
    "gener@@": 4710,
    "las": 4711,
    "reception": 4712,
    "f\u00e4llt": 4713,
    "Name": 4714,
    "heiten": 4715,
    "Kan@@": 4716,
    "uns@@": 4717,
    "items": 4718,
    "las@@": 4719,
    "ac": 4720,
    "Unfortunately": 4721,
    "Because": 4722,
    "entirely": 4723,
    "presence": 4724,
    "relate": 4725,
    "Instrumente": 4726,
    "Verwaltungs@@": 4727,
    "Februar": 4728,
    "lungen": 4729,
    "Jetzt": 4730,
    "Abschlie\u00dfend": 4731,
    "spar@@": 4732,
    "ec": 4733,
    "asse": 4734,
    "Research": 4735,
    "Wege": 4736,
    "klare": 4737,
    "provision": 4738,
    "sagt": 4739,
    "Hei@@": 4740,
    "Stimme": 4741,
    "Warum": 4742,
    "erleben": 4743,
    "ams": 4744,
    "ID": 4745,
    "competitiveness": 4746,
    "aren": 4747,
    "Bro@@": 4748,
    "spirit": 4749,
    "Pan@@": 4750,
    "core": 4751,
    "richtigen": 4752,
    "gel": 4753,
    "Ver\u00e4nderungen": 4754,
    "T\u00e4tigkeit": 4755,
    "Kenntnis": 4756,
    "Leider": 4757,
    "stock": 4758,
    "ements": 4759,
    "erungen": 4760,
    "Garten": 4761,
    "acht": 4762,
    "generally": 4763,
    "-F@@": 4764,
    "chtet": 4765,
    "gri@@": 4766,
    "Vereinten": 4767,
    "gebaut": 4768,
    "Internet@@": 4769,
    "Gesch@@": 4770,
    "Berichte": 4771,
    "Arbeiten": 4772,
    "Poland": 4773,
    "difference": 4774,
    "ON": 4775,
    "d\u00e9@@": 4776,
    "refer": 4777,
    "Click": 4778,
    "tak@@": 4779,
    "ane": 4780,
    "Abschluss": 4781,
    "ona": 4782,
    "alised": 4783,
    "schutz@@": 4784,
    "presidency": 4785,
    "My@@": 4786,
    "werte": 4787,
    "Forderung": 4788,
    "ain@@": 4789,
    "trag@@": 4790,
    "lands": 4791,
    "erstellt": 4792,
    "bodies": 4793,
    "Modell": 4794,
    "Bra@@": 4795,
    "assen": 4796,
    "summit": 4797,
    "display": 4798,
    "Durch@@": 4799,
    "Initiativen": 4800,
    "IN": 4801,
    "machines": 4802,
    "actual": 4803,
    "Plan@@": 4804,
    "st\u00e4rken": 4805,
    "Familien@@": 4806,
    "sage": 4807,
    "houses": 4808,
    "Best@@": 4809,
    "Brussels": 4810,
    "m\u00fc@@": 4811,
    "Forum": 4812,
    "speziell": 4813,
    "ausdr\u00fccklich": 4814,
    "reasonable": 4815,
    "sive": 4816,
    "Mitte": 4817,
    "authority": 4818,
    "prior": 4819,
    "\u043c@@": 4820,
    "vorgesehen": 4821,
    "cra@@": 4822,
    "Vergleich": 4823,
    "domestic": 4824,
    "lichem": 4825,
    "wollte": 4826,
    "ologie": 4827,
    "advanced": 4828,
    "coordination": 4829,
    "informed": 4830,
    "zen@@": 4831,
    "atische": 4832,
    "Zeiten": 4833,
    "cal@@": 4834,
    "wel@@": 4835,
    "Ren@@": 4836,
    "dealing": 4837,
    "dagegen": 4838,
    "betonen": 4839,
    "Bl@@": 4840,
    "Vielen": 4841,
    "PT": 4842,
    "Adresse": 4843,
    "informieren": 4844,
    "ften": 4845,
    "ination": 4846,
    "port@@": 4847,
    "district": 4848,
    "meetings": 4849,
    "wing": 4850,
    "character": 4851,
    "ery": 4852,
    "Street": 4853,
    "com": 4854,
    "Regelung": 4855,
    "Engagement": 4856,
    "Teile": 4857,
    "Once": 4858,
    "win": 4859,
    "Abgeordnete": 4860,
    "fr@@": 4861,
    "difficulties": 4862,
    "95": 4863,
    "Klein@@": 4864,
    "Irak": 4865,
    "vehicles": 4866,
    "signed": 4867,
    "Ausgaben": 4868,
    "parliamentary": 4869,
    "animal": 4870,
    "stor@@": 4871,
    "Besucher": 4872,
    "condition": 4873,
    "cia": 4874,
    "Great": 4875,
    "experienced": 4876,
    "coffee": 4877,
    "multi@@": 4878,
    "rap@@": 4879,
    "appears": 4880,
    "m\u00f6glichst": 4881,
    "ited": 4882,
    "ner@@": 4883,
    "durchaus": 4884,
    "t\u00e4glich": 4885,
    "gewinnen": 4886,
    "numbers": 4887,
    "peaceful": 4888,
    "Unternehmens@@": 4889,
    "applies": 4890,
    "ordnung": 4891,
    "beschlossen": 4892,
    "Ob@@": 4893,
    "Transport": 4894,
    "zentrale": 4895,
    "estate": 4896,
    "spiel@@": 4897,
    "Herausforderung": 4898,
    "fisheries": 4899,
    "stadt": 4900,
    "becomes": 4901,
    "na@@": 4902,
    "Dienste": 4903,
    "vorhanden": 4904,
    "consideration": 4905,
    "permanent": 4906,
    "tag@@": 4907,
    "Mitgliedstaat": 4908,
    "schl@@": 4909,
    "schw@@": 4910,
    "pra@@": 4911,
    "Angaben": 4912,
    "According": 4913,
    "lokalen": 4914,
    "politics": 4915,
    "Ziel@@": 4916,
    "wenigen": 4917,
    "Mer@@": 4918,
    "Bank@@": 4919,
    "Vo@@": 4920,
    "ending": 4921,
    "resort": 4922,
    "wood": 4923,
    "bes": 4924,
    "Pass@@": 4925,
    "Breakfast": 4926,
    "gek@@": 4927,
    "flexibility": 4928,
    "ick@@": 4929,
    "gefordert": 4930,
    "analy@@": 4931,
    "Werk@@": 4932,
    "origin": 4933,
    "Ost@@": 4934,
    "bedingungen": 4935,
    "Golf": 4936,
    "Star@@": 4937,
    "99": 4938,
    "Zei@@": 4939,
    "Klicken": 4940,
    "Zeitraum": 4941,
    "dig@@": 4942,
    "courses": 4943,
    "ous@@": 4944,
    "ack": 4945,
    "Komfort": 4946,
    "W\u00e4hrung": 4947,
    "Air": 4948,
    "ben\u00f6tigt": 4949,
    "feld": 4950,
    "dank": 4951,
    "val@@": 4952,
    "konkrete": 4953,
    "break": 4954,
    "Druck@@": 4955,
    "prot@@": 4956,
    "--": 4957,
    "monetary": 4958,
    "vision": 4959,
    "Pap@@": 4960,
    "Gro\u00dfbritannien": 4961,
    "easier": 4962,
    "Hauses": 4963,
    "freue": 4964,
    "Multi@@": 4965,
    "establishment": 4966,
    "jo@@": 4967,
    "ver\u00f6ffentlicht": 4968,
    "sches": 4969,
    "36": 4970,
    "aj@@": 4971,
    "ged": 4972,
    "angeboten": 4973,
    "economies": 4974,
    "picture": 4975,
    "cars": 4976,
    "urs": 4977,
    "Jahrhunderts": 4978,
    "God": 4979,
    "told": 4980,
    "finanzielle": 4981,
    "database": 4982,
    "Mio.": 4983,
    "Menschenrechts@@": 4984,
    "threat": 4985,
    "Bre@@": 4986,
    "high-@@": 4987,
    "ved": 4988,
    "Net@@": 4989,
    "fixed": 4990,
    "Gebieten": 4991,
    "starke": 4992,
    "reicht": 4993,
    "f\u00fchrenden": 4994,
    "\u00e4l@@": 4995,
    "Sil@@": 4996,
    "combat": 4997,
    "ini@@": 4998,
    "aspect": 4999,
    "tere": 5000,
    "structures": 5001,
    "konzentrieren": 5002,
    "practices": 5003,
    "Test@@": 5004,
    "leader": 5005,
    "Wissen": 5006,
    "les@@": 5007,
    "AB@@": 5008,
    "gew\u00e4hrleistet": 5009,
    "aims": 5010,
    "san@@": 5011,
    "forget": 5012,
    "weight": 5013,
    "kulturellen": 5014,
    "Dennoch": 5015,
    "Status": 5016,
    "Nieder@@": 5017,
    "34": 5018,
    "print": 5019,
    "dem@@": 5020,
    "B\u00fcrger@@": 5021,
    "f\u00fchrte": 5022,
    "Auto": 5023,
    "attempt": 5024,
    "erfolgen": 5025,
    "ering": 5026,
    "Terrasse": 5027,
    "darstellen": 5028,
    "models": 5029,
    "trip": 5030,
    "ships": 5031,
    "n\u00e4chste": 5032,
    "rent": 5033,
    "Madrid": 5034,
    "continued": 5035,
    "entstehen": 5036,
    "erscheint": 5037,
    "Comm@@": 5038,
    "Beitritt": 5039,
    "south": 5040,
    "istischen": 5041,
    "failure": 5042,
    "Herstellung": 5043,
    "spent": 5044,
    "Programms": 5045,
    "Nachfolgend": 5046,
    "myself": 5047,
    "combination": 5048,
    "Kingdom": 5049,
    "AG@@": 5050,
    "ri": 5051,
    "fordert": 5052,
    "Online": 5053,
    "erkl\u00e4ren": 5054,
    "Worte": 5055,
    "pul@@": 5056,
    "propose": 5057,
    "flow": 5058,
    "seriously": 5059,
    "dri@@": 5060,
    "ica": 5061,
    "dic@@": 5062,
    "geschrieben": 5063,
    "arten": 5064,
    "dennoch": 5065,
    "Sel@@": 5066,
    "ain": 5067,
    "Einigung": 5068,
    "Association": 5069,
    "Rede": 5070,
    "zw@@": 5071,
    "an-@@": 5072,
    "translation": 5073,
    "erstellen": 5074,
    "unabh\u00e4ngig": 5075,
    "Antrag": 5076,
    "Mel@@": 5077,
    "ater": 5078,
    "Zweifel": 5079,
    "tiven": 5080,
    "hi": 5081,
    "associated": 5082,
    "sch\u00f6nen": 5083,
    "detail": 5084,
    "ungsan@@": 5085,
    "buffet": 5086,
    "Voll@@": 5087,
    "Kirche": 5088,
    "attractive": 5089,
    "48": 5090,
    "Cap@@": 5091,
    "Santa": 5092,
    "betrachtet": 5093,
    "net@@": 5094,
    "post": 5095,
    "t\u00e4tig": 5096,
    "Zweck": 5097,
    "Energie@@": 5098,
    "promoting": 5099,
    "club": 5100,
    "anyone": 5101,
    "schwierig": 5102,
    "ancient": 5103,
    "himself": 5104,
    "Pres@@": 5105,
    "ahead": 5106,
    "sto@@": 5107,
    "unterschiedliche": 5108,
    "relax": 5109,
    "dig": 5110,
    "Geb@@": 5111,
    "-K@@": 5112,
    "Ter@@": 5113,
    "Forderungen": 5114,
    "satz": 5115,
    "Pakistan": 5116,
    "gegr\u00fcndet": 5117,
    "sou@@": 5118,
    "differences": 5119,
    "studies": 5120,
    "inform@@": 5121,
    "Open": 5122,
    "reservation": 5123,
    "einiger": 5124,
    "reducing": 5125,
    "aden": 5126,
    "availability": 5127,
    "phase": 5128,
    "finance": 5129,
    "Dom@@": 5130,
    "Musik@@": 5131,
    "ye": 5132,
    "Belarus": 5133,
    "brand": 5134,
    "Sehr": 5135,
    "IF@@": 5136,
    "announced": 5137,
    "eingehen": 5138,
    "Gas@@": 5139,
    "istische": 5140,
    "charged": 5141,
    "Geld@@": 5142,
    "Analyse": 5143,
    "beaches": 5144,
    "sionen": 5145,
    "schul@@": 5146,
    "changing": 5147,
    "umfasst": 5148,
    "Fran@@": 5149,
    "Universit\u00e4t": 5150,
    "Mac@@": 5151,
    "impossible": 5152,
    "Regel": 5153,
    "f\u00e4higkeit": 5154,
    "\u00d6sterreich": 5155,
    "ological": 5156,
    "carefully": 5157,
    "Zi@@": 5158,
    "Einhaltung": 5159,
    "released": 5160,
    "stein": 5161,
    "pre-@@": 5162,
    "one-@@": 5163,
    "Pra@@": 5164,
    "gain": 5165,
    "voice": 5166,
    "absolut": 5167,
    "humanitarian": 5168,
    "gestalten": 5169,
    "Stellungnahme": 5170,
    "balanced": 5171,
    "98": 5172,
    "ware": 5173,
    "Aufnahme": 5174,
    "gs@@": 5175,
    "Gegen@@": 5176,
    "Tour": 5177,
    "che@@": 5178,
    "\u00c3": 5179,
    "shared": 5180,
    "2.": 5181,
    "sha@@": 5182,
    "fund": 5183,
    "diskutieren": 5184,
    "Firstly": 5185,
    "consumption": 5186,
    "haft": 5187,
    "session": 5188,
    "dangerous": 5189,
    "opposition": 5190,
    "Gal@@": 5191,
    "booking": 5192,
    "geschehen": 5193,
    "pr@@": 5194,
    "uner@@": 5195,
    "Dollar": 5196,
    "Sehensw\u00fcrdigkeiten": 5197,
    "welt": 5198,
    "Griechenland": 5199,
    "immediate": 5200,
    "names": 5201,
    "Irish": 5202,
    "happened": 5203,
    "geleistet": 5204,
    "Private": 5205,
    "producers": 5206,
    "learning": 5207,
    "rein@@": 5208,
    "agencies": 5209,
    "cas@@": 5210,
    "defence": 5211,
    "lungs@@": 5212,
    "hands": 5213,
    "Texte": 5214,
    "architecture": 5215,
    "museum": 5216,
    "tn@@": 5217,
    "duty": 5218,
    "kaufen": 5219,
    "liebe": 5220,
    "EADS": 5221,
    "concrete": 5222,
    "statements": 5223,
    "implementing": 5224,
    "Fonds": 5225,
    "of@@": 5226,
    "cul@@": 5227,
    "l\u00e4uft": 5228,
    "Leg@@": 5229,
    "kt@@": 5230,
    "ised": 5231,
    "ular": 5232,
    "tem": 5233,
    "trading": 5234,
    "exhibition": 5235,
    "Gleichzeitig": 5236,
    "Abend": 5237,
    "Trade": 5238,
    "Achtung": 5239,
    "eigen@@": 5240,
    "England": 5241,
    "tage": 5242,
    "Stellen": 5243,
    "glich": 5244,
    "ended": 5245,
    "orders": 5246,
    "Health": 5247,
    "Kommunikation": 5248,
    "river": 5249,
    "arrival": 5250,
    "inform": 5251,
    "gruppe": 5252,
    "advance": 5253,
    "folgende": 5254,
    "ke@@": 5255,
    "Zwei@@": 5256,
    "truly": 5257,
    "pictures": 5258,
    "wall": 5259,
    "Angesichts": 5260,
    "Klima@@": 5261,
    "instance": 5262,
    "Vielzahl": 5263,
    "insurance": 5264,
    "respond": 5265,
    "Guest": 5266,
    "\u00e9e": 5267,
    "grounds": 5268,
    "aci@@": 5269,
    "raise": 5270,
    "Da@@": 5271,
    "MA@@": 5272,
    "criminal": 5273,
    "article": 5274,
    "introduce": 5275,
    "Due": 5276,
    "button": 5277,
    "chi@@": 5278,
    "Prime": 5279,
    "os@@": 5280,
    "Sorge": 5281,
    "ama": 5282,
    "evidence": 5283,
    "profitieren": 5284,
    "stei@@": 5285,
    "described": 5286,
    "regionalen": 5287,
    "Hersteller": 5288,
    "we@@": 5289,
    "Entwicklungen": 5290,
    "Every": 5291,
    "Fu\u00df": 5292,
    "esten": 5293,
    "suite": 5294,
    "recommend": 5295,
    "verfolgt": 5296,
    "Download": 5297,
    "Hintergrund": 5298,
    "Paket": 5299,
    "skills": 5300,
    "recht@@": 5301,
    "zung": 5302,
    "nah@@": 5303,
    "nung": 5304,
    "posi@@": 5305,
    "Aspekt": 5306,
    "Sport": 5307,
    "improvement": 5308,
    "garantiert": 5309,
    "\u00fcberpr\u00fcfen": 5310,
    "bas@@": 5311,
    "600": 5312,
    "don@@": 5313,
    "37": 5314,
    "Priorit\u00e4ten": 5315,
    "band": 5316,
    "registered": 5317,
    "Dokument": 5318,
    "meters": 5319,
    "einander": 5320,
    "fung": 5321,
    "Europeans": 5322,
    "Links": 5323,
    "relaxing": 5324,
    "Arten": 5325,
    "recognition": 5326,
    "guarantees": 5327,
    "Casino": 5328,
    "passed": 5329,
    "ISO": 5330,
    "calling": 5331,
    "feststellen": 5332,
    "Polen": 5333,
    "zing": 5334,
    "ett": 5335,
    "genuine": 5336,
    "standing": 5337,
    "Hi@@": 5338,
    "spending": 5339,
    "l\u00e4ndern": 5340,
    "tischer": 5341,
    "possibilities": 5342,
    "Tu@@": 5343,
    "\u043f@@": 5344,
    "atives": 5345,
    "nearby": 5346,
    "continues": 5347,
    "kom@@": 5348,
    "de-@@": 5349,
    "verlassen": 5350,
    "werke": 5351,
    "Arbeitslosigkeit": 5352,
    "loc@@": 5353,
    "weg@@": 5354,
    "ands": 5355,
    "cker": 5356,
    "Very": 5357,
    "Afrika": 5358,
    "erst@@": 5359,
    "Rechnung": 5360,
    "plan@@": 5361,
    "\u0443@@": 5362,
    "res": 5363,
    "reliable": 5364,
    "figures": 5365,
    "Pu@@": 5366,
    "tsch@@": 5367,
    "television": 5368,
    "installed": 5369,
    "cont@@": 5370,
    "membership": 5371,
    "wishes": 5372,
    "Wal@@": 5373,
    "Ja": 5374,
    "Stil": 5375,
    "weiterer": 5376,
    "Recht@@": 5377,
    "National@@": 5378,
    "unacceptable": 5379,
    "combined": 5380,
    "\u00e4nde": 5381,
    "devices": 5382,
    "System@@": 5383,
    "ander@@": 5384,
    "Partnerschaft": 5385,
    "pers\u00f6nlich": 5386,
    "zimmer": 5387,
    "election": 5388,
    "Kri@@": 5389,
    "\u0438": 5390,
    "packages": 5391,
    "Mann": 5392,
    "firm": 5393,
    "fri@@": 5394,
    "ances": 5395,
    "len@@": 5396,
    "campaign": 5397,
    "St\u00e4rkung": 5398,
    "bauen": 5399,
    "color": 5400,
    "sichern": 5401,
    "CA@@": 5402,
    "adoption": 5403,
    "empfehlen": 5404,
    "ot": 5405,
    "Sam@@": 5406,
    "Rad@@": 5407,
    "fonds": 5408,
    "Foundation": 5409,
    "religious": 5410,
    "miteinander": 5411,
    "Euro@@": 5412,
    "1994": 5413,
    "Seine": 5414,
    "seek": 5415,
    "completed": 5416,
    "fiscal": 5417,
    "felt": 5418,
    "Nacht": 5419,
    "mil@@": 5420,
    "\u00fcbrigen": 5421,
    "33": 5422,
    "allowing": 5423,
    "enables": 5424,
    "Indi@@": 5425,
    "bezeichnet": 5426,
    "unless": 5427,
    "minister": 5428,
    "territory": 5429,
    "ausschuss": 5430,
    "Kom@@": 5431,
    "greatest": 5432,
    "strongly": 5433,
    "zeichnet": 5434,
    "black": 5435,
    "Indien": 5436,
    "sides": 5437,
    "African": 5438,
    "kept": 5439,
    "Moment": 5440,
    "chs@@": 5441,
    "kosten@@": 5442,
    "oh@@": 5443,
    "gegenw\u00e4rtig": 5444,
    "Mindest@@": 5445,
    "gutes": 5446,
    "Agrar@@": 5447,
    "Sar@@": 5448,
    "sensitive": 5449,
    "tly": 5450,
    "participate": 5451,
    "tasks": 5452,
    "Plat@@": 5453,
    "Gesetz": 5454,
    "Deutsche": 5455,
    "angesprochen": 5456,
    "IR@@": 5457,
    "III": 5458,
    "flo@@": 5459,
    "Leistung": 5460,
    "sale": 5461,
    "Betrieb": 5462,
    "mes": 5463,
    "Lesung": 5464,
    "surrounding": 5465,
    "sort": 5466,
    "erter": 5467,
    "Bed\u00fcrfnisse": 5468,
    "tour@@": 5469,
    "Can@@": 5470,
    "Programm@@": 5471,
    "Grenz@@": 5472,
    "eingef\u00fchrt": 5473,
    "pos@@": 5474,
    "\u2022": 5475,
    "Fer@@": 5476,
    "zeichen": 5477,
    "tz": 5478,
    "obtain": 5479,
    "Problemen": 5480,
    "2,@@": 5481,
    "manage": 5482,
    "franz\u00f6sischen": 5483,
    "Pat@@": 5484,
    "Ideen": 5485,
    "bul@@": 5486,
    "Mont@@": 5487,
    "Manager": 5488,
    "Formen": 5489,
    "court": 5490,
    "gegenw\u00e4rtigen": 5491,
    "Beschreibung": 5492,
    "eck": 5493,
    "contain": 5494,
    "tier@@": 5495,
    "hingewiesen": 5496,
    "Justice": 5497,
    "unfortunately": 5498,
    "erh\u00e4lt": 5499,
    "Mass@@": 5500,
    "Tradition": 5501,
    "Titel": 5502,
    "ena": 5503,
    "inv@@": 5504,
    "bars": 5505,
    "closer": 5506,
    "\u00fcberall": 5507,
    "ki@@": 5508,
    "elected": 5509,
    "Gemeinsamen": 5510,
    "Irland": 5511,
    "zufrieden": 5512,
    "gro\u00df": 5513,
    "fication": 5514,
    "Aussch@@": 5515,
    "End@@": 5516,
    "definition": 5517,
    "Dor@@": 5518,
    "minim@@": 5519,
    "ring": 5520,
    "fear": 5521,
    "surface": 5522,
    "positiv": 5523,
    "demokratische": 5524,
    "Another": 5525,
    "sets": 5526,
    "beginnt": 5527,
    "attractions": 5528,
    "zz@@": 5529,
    "dor@@": 5530,
    "Barroso": 5531,
    "middle": 5532,
    "hom@@": 5533,
    "absolute": 5534,
    "desire": 5535,
    "mag": 5536,
    "9.@@": 5537,
    "gesch\u00fctzt": 5538,
    "Sinn": 5539,
    "Player": 5540,
    "Elemente": 5541,
    "einsetzen": 5542,
    "Last": 5543,
    "coast": 5544,
    "komplett": 5545,
    "0-@@": 5546,
    "Ges@@": 5547,
    "fic@@": 5548,
    "Ki@@": 5549,
    "werk@@": 5550,
    "Richtlinien": 5551,
    "Kr@@": 5552,
    "OL@@": 5553,
    "route": 5554,
    "danach": 5555,
    "dedicated": 5556,
    "Priorit\u00e4t": 5557,
    "compared": 5558,
    "lim@@": 5559,
    "unterst\u00fctze": 5560,
    "Such": 5561,
    "platform": 5562,
    "\u00dcberwachung": 5563,
    "sun": 5564,
    "Hamburg": 5565,
    "window": 5566,
    "beauty": 5567,
    "gro\u00dfes": 5568,
    "piece": 5569,
    "Gre@@": 5570,
    "guide": 5571,
    "chter@@": 5572,
    "Is@@": 5573,
    "800": 5574,
    "aufmerksam": 5575,
    "keinerlei": 5576,
    "Menschen@@": 5577,
    "umfassende": 5578,
    "alist": 5579,
    "Federal": 5580,
    "38": 5581,
    "TR@@": 5582,
    "Vienna": 5583,
    "Jeder": 5584,
    "Turkish": 5585,
    "mehr@@": 5586,
    "verk@@": 5587,
    "ausreichend": 5588,
    "iel@@": 5589,
    "Gast@@": 5590,
    "einfache": 5591,
    "Banken": 5592,
    "Syn@@": 5593,
    "interface": 5594,
    "bear": 5595,
    "Regelungen": 5596,
    "anda": 5597,
    "forced": 5598,
    "erforderlichen": 5599,
    "Gesch\u00e4ftsordnung": 5600,
    "f\u00fchr@@": 5601,
    "gezogen": 5602,
    "wasser@@": 5603,
    "corporate": 5604,
    "Tel@@": 5605,
    "los@@": 5606,
    "blo@@": 5607,
    "alli@@": 5608,
    "marked": 5609,
    "lt": 5610,
    "enormous": 5611,
    "sli@@": 5612,
    "claims": 5613,
    "hel@@": 5614,
    "besitzt": 5615,
    "gr\u00f6\u00dferen": 5616,
    "Meiner": 5617,
    "Fortschritt": 5618,
    "haften": 5619,
    "err@@": 5620,
    "Bewertung": 5621,
    "cm": 5622,
    "Anteil": 5623,
    "Can": 5624,
    "Beh@@": 5625,
    "fel@@": 5626,
    "failed": 5627,
    "Liefer@@": 5628,
    "s\u00e4mtliche": 5629,
    "spezielle": 5630,
    "Verh\u00e4ltnis": 5631,
    "best\u00e4tigt": 5632,
    "erin": 5633,
    "gem": 5634,
    "biggest": 5635,
    "ata": 5636,
    "beteiligt": 5637,
    "Technik": 5638,
    "M\u00e4rkte": 5639,
    "export": 5640,
    "isi@@": 5641,
    "Kritik": 5642,
    "vorliegenden": 5643,
    "signal": 5644,
    "ik@@": 5645,
    "AL": 5646,
    "individuals": 5647,
    "dete": 5648,
    "square": 5649,
    "Far@@": 5650,
    "ol": 5651,
    "perspective": 5652,
    "funktion@@": 5653,
    "accessible": 5654,
    "l\u00e4nger": 5655,
    "Gr\u00f6\u00dfe": 5656,
    "entitled": 5657,
    "storage": 5658,
    "Ir@@": 5659,
    "stru@@": 5660,
    "fall@@": 5661,
    "09": 5662,
    "luxury": 5663,
    "moving": 5664,
    "Eastern": 5665,
    "55": 5666,
    "comment": 5667,
    "seite": 5668,
    "ni": 5669,
    "anc@@": 5670,
    "onto": 5671,
    "science": 5672,
    "sonst": 5673,
    "urgent": 5674,
    "extended": 5675,
    "Entwurf": 5676,
    "S\u00fcd@@": 5677,
    "bt": 5678,
    "holidays": 5679,
    "Greek": 5680,
    "Reise@@": 5681,
    "Home": 5682,
    "exercise": 5683,
    "Michael": 5684,
    "install": 5685,
    "totally": 5686,
    "device": 5687,
    "Prinzip": 5688,
    "pal@@": 5689,
    "onn@@": 5690,
    "Inn": 5691,
    "write": 5692,
    "freiheit": 5693,
    "mittels": 5694,
    "story": 5695,
    "unto": 5696,
    "deten": 5697,
    "nennen": 5698,
    "wind": 5699,
    "ko": 5700,
    "Nevertheless": 5701,
    "convinced": 5702,
    "lauf@@": 5703,
    "leistungs@@": 5704,
    "rufen": 5705,
    "exc@@": 5706,
    "railway": 5707,
    "sch\u00f6ne": 5708,
    "Br\u00fcssel": 5709,
    "yl@@": 5710,
    "wunder@@": 5711,
    "Democrats": 5712,
    "Besch\u00e4ftigungs@@": 5713,
    "Verpflichtung": 5714,
    "cr@@": 5715,
    "Fr@@": 5716,
    "sum@@": 5717,
    "institution": 5718,
    "internationaler": 5719,
    "este": 5720,
    "memory": 5721,
    "kostenlos": 5722,
    "Yet": 5723,
    "\u010d@@": 5724,
    "eder": 5725,
    "Eing@@": 5726,
    "advertising": 5727,
    "verbundenen": 5728,
    "hergestellt": 5729,
    "offensichtlich": 5730,
    "flight": 5731,
    "bath": 5732,
    "sicht@@": 5733,
    "books": 5734,
    "gel\u00f6st": 5735,
    "host": 5736,
    "garantieren": 5737,
    "expensive": 5738,
    "Globalisierung": 5739,
    "Schi@@": 5740,
    "discover": 5741,
    "Agentur": 5742,
    "lie": 5743,
    "controls": 5744,
    "Ma\u00dfe": 5745,
    "church": 5746,
    "coll@@": 5747,
    "engine": 5748,
    "Motor@@": 5749,
    "mail": 5750,
    "Mitteln": 5751,
    "Dra@@": 5752,
    "advice": 5753,
    "lo": 5754,
    "drawn": 5755,
    "organization": 5756,
    "starken": 5757,
    "Worten": 5758,
    "schlagen": 5759,
    "abkommen": 5760,
    "Treffen": 5761,
    "\u00e4ch@@": 5762,
    "Eigen@@": 5763,
    "Bush": 5764,
    "factors": 5765,
    "d.": 5766,
    "1990": 5767,
    "Lan@@": 5768,
    "gkeit": 5769,
    "fire": 5770,
    "Netherlands": 5771,
    "yer": 5772,
    "initial": 5773,
    "Institute": 5774,
    "payments": 5775,
    "drei@@": 5776,
    "fur@@": 5777,
    "lern": 5778,
    "ick": 5779,
    "Fotos": 5780,
    "Lake": 5781,
    "ola": 5782,
    "08": 5783,
    "bekannten": 5784,
    "unable": 5785,
    "stone": 5786,
    "Austrian": 5787,
    "ome": 5788,
    "micro@@": 5789,
    "Shi@@": 5790,
    "ect": 5791,
    "\u043a@@": 5792,
    "disease": 5793,
    "organised": 5794,
    "echte": 5795,
    "chosen": 5796,
    "stattfinden": 5797,
    "granted": 5798,
    "Log@@": 5799,
    "elten": 5800,
    "Unterkunft": 5801,
    "nation": 5802,
    "Altstadt": 5803,
    "weapons": 5804,
    "dienst": 5805,
    "zus\u00e4tzlich": 5806,
    "beinhaltet": 5807,
    "Gr\u00fcnde": 5808,
    "Studio": 5809,
    "ony": 5810,
    "chter": 5811,
    "alter": 5812,
    "ty@@": 5813,
    "Sor@@": 5814,
    "Betriebs@@": 5815,
    "establishing": 5816,
    "Company": 5817,
    "Verkehr": 5818,
    "pfen": 5819,
    "Monat": 5820,
    "cer@@": 5821,
    "z\u00e4hlen": 5822,
    "outcome": 5823,
    "Volks@@": 5824,
    "Jahres@@": 5825,
    "m\u00f6gliche": 5826,
    "Design@@": 5827,
    "limits": 5828,
    "\u00fcbertragen": 5829,
    "contrary": 5830,
    "Umfang": 5831,
    "28@@": 5832,
    "Festival": 5833,
    "deutsche": 5834,
    "perfectly": 5835,
    "&apos;re": 5836,
    "ong": 5837,
    "attack": 5838,
    "regi@@": 5839,
    "Ca@@": 5840,
    "wirken": 5841,
    "update": 5842,
    "conclusions": 5843,
    "Resort": 5844,
    "Niveau": 5845,
    "Nicht@@": 5846,
    "dat@@": 5847,
    "Erkl\u00e4rungen": 5848,
    "wesentlichen": 5849,
    "ca@@": 5850,
    "Control": 5851,
    "tried": 5852,
    "hu@@": 5853,
    "\u00fcsse": 5854,
    "mountains": 5855,
    "massive": 5856,
    "chan@@": 5857,
    "Gri@@": 5858,
    "britischen": 5859,
    "Dec@@": 5860,
    "zufolge": 5861,
    "Poli@@": 5862,
    "gruppen": 5863,
    "7-@@": 5864,
    "Beteiligung": 5865,
    "rat@@": 5866,
    "zt": 5867,
    "Rel@@": 5868,
    "Industri@@": 5869,
    "anst@@": 5870,
    "Palace": 5871,
    "neither": 5872,
    "6-@@": 5873,
    "betrachten": 5874,
    "Sei@@": 5875,
    "rightly": 5876,
    "OT@@": 5877,
    "furnished": 5878,
    "Generation": 5879,
    "Thus": 5880,
    "ambitious": 5881,
    "commitments": 5882,
    "listen": 5883,
    "verloren": 5884,
    "fes@@": 5885,
    "Gott": 5886,
    "water@@": 5887,
    "tin": 5888,
    "Are": 5889,
    "Atom@@": 5890,
    "fit": 5891,
    "zuvor": 5892,
    "solcher": 5893,
    "steigen": 5894,
    "valid": 5895,
    "Foreign": 5896,
    "Gegensatz": 5897,
    "umwelt@@": 5898,
    "finde": 5899,
    "fli@@": 5900,
    "vehicle": 5901,
    "Risiken": 5902,
    "entsprechen": 5903,
    "background": 5904,
    "existence": 5905,
    "Patienten": 5906,
    "indi@@": 5907,
    "Ba@@": 5908,
    "Reise": 5909,
    "etz@@": 5910,
    "successfully": 5911,
    "Politiker": 5912,
    "relativ": 5913,
    "agency": 5914,
    "chung": 5915,
    "Tal@@": 5916,
    "eu": 5917,
    "anlagen": 5918,
    "convenient": 5919,
    "maintenance": 5920,
    "gestellten": 5921,
    "Europ\u00e4er": 5922,
    "artists": 5923,
    "Note": 5924,
    "Schl\u00fcssel@@": 5925,
    "ment@@": 5926,
    "greifen": 5927,
    "saw": 5928,
    "Entschlie\u00dfungsantrag": 5929,
    "setzung": 5930,
    "ection": 5931,
    "read@@": 5932,
    "ables": 5933,
    ".de": 5934,
    "Option": 5935,
    "fte": 5936,
    "register": 5937,
    "asylum": 5938,
    "speziellen": 5939,
    "glichen": 5940,
    "Data": 5941,
    "Methode": 5942,
    "IG@@": 5943,
    "Flexibilit\u00e4t": 5944,
    "ag": 5945,
    "spiel": 5946,
    "vit@@": 5947,
    "h.": 5948,
    "kraft": 5949,
    "Kompromiss": 5950,
    "ust": 5951,
    "honourable": 5952,
    "claim": 5953,
    "8.@@": 5954,
    "anische": 5955,
    "Mand@@": 5956,
    "Palestinian": 5957,
    "approximately": 5958,
    "ther": 5959,
    "Eindruck": 5960,
    "Mitgliedern": 5961,
    "es-@@": 5962,
    "remind": 5963,
    "Aktionen": 5964,
    "een": 5965,
    "candidate": 5966,
    "Ereignisse": 5967,
    "para": 5968,
    "ink": 5969,
    "Off@@": 5970,
    "wider": 5971,
    "ci": 5972,
    "gei@@": 5973,
    "asking": 5974,
    "nation@@": 5975,
    "gehalten": 5976,
    "tlichen": 5977,
    "\u00e7@@": 5978,
    "Aussicht": 5979,
    "07": 5980,
    "gegangen": 5981,
    "yst@@": 5982,
    "TH@@": 5983,
    "Weitere": 5984,
    "Rom@@": 5985,
    "achieving": 5986,
    "mei@@": 5987,
    "ge\u00f6ffnet": 5988,
    "cru@@": 5989,
    "run@@": 5990,
    "Absatz": 5991,
    "Beim": 5992,
    "\u043d@@": 5993,
    "Ka@@": 5994,
    "constantly": 5995,
    "PHP": 5996,
    "abgeschlossen": 5997,
    "k-@@": 5998,
    "Latin": 5999,
    "surrounded": 6000,
    "r\u00e9@@": 6001,
    "rechtlichen": 6002,
    "Peter": 6003,
    "st\u00e4ndigen": 6004,
    "obviously": 6005,
    "\u00eda": 6006,
    "j\u00fcngsten": 6007,
    "deliver": 6008,
    "rechten": 6009,
    "Aufbau": 6010,
    "schafts@@": 6011,
    "komm@@": 6012,
    "Nachdem": 6013,
    "dep@@": 6014,
    "targets": 6015,
    "asp@@": 6016,
    "continuing": 6017,
    "manchmal": 6018,
    "m2": 6019,
    "unit": 6020,
    "intervention": 6021,
    "utili@@": 6022,
    "daraus": 6023,
    "Bis": 6024,
    "vers": 6025,
    "sam@@": 6026,
    "fort": 6027,
    "guter": 6028,
    "goals": 6029,
    "aw@@": 6030,
    "expression": 6031,
    "monitor": 6032,
    "Air@@": 6033,
    "ari": 6034,
    "category": 6035,
    "ard@@": 6036,
    "Wirkung": 6037,
    "Located": 6038,
    "paragraph": 6039,
    "m\u00e4\u00dfig": 6040,
    "Begriff": 6041,
    "Verst\u00e4ndnis": 6042,
    "fach@@": 6043,
    "ischem": 6044,
    "zy@@": 6045,
    "Innen": 6046,
    "Empfehlungen": 6047,
    "Fol@@": 6048,
    "independence": 6049,
    "informiert": 6050,
    "erh\u00f6ht": 6051,
    "Haus@@": 6052,
    "are@@": 6053,
    "Erde": 6054,
    "el-@@": 6055,
    "Kraft@@": 6056,
    "colleague": 6057,
    "nationaler": 6058,
    "outstanding": 6059,
    "\u00d6l@@": 6060,
    "equ@@": 6061,
    "kar@@": 6062,
    "touch": 6063,
    "Gebiete": 6064,
    "ected": 6065,
    "Card": 6066,
    "Gl@@": 6067,
    "stehenden": 6068,
    "title": 6069,
    "dliche": 6070,
    "contents": 6071,
    "promotion": 6072,
    "haupts\u00e4chlich": 6073,
    "alisation": 6074,
    "oni": 6075,
    "ising": 6076,
    "aircraft": 6077,
    "lichkeiten": 6078,
    "laid": 6079,
    "Bildungs@@": 6080,
    "mobili@@": 6081,
    "ched": 6082,
    "Constitution": 6083,
    "deep": 6084,
    "ow": 6085,
    "reich": 6086,
    "Realit\u00e4t": 6087,
    "erfordert": 6088,
    "ani": 6089,
    "dige": 6090,
    "gets": 6091,
    "someone": 6092,
    "operate": 6093,
    "19.": 6094,
    "physical": 6095,
    "photos": 6096,
    "sell": 6097,
    "ren": 6098,
    "qui@@": 6099,
    "Anlagen": 6100,
    "Start": 6101,
    "ideale": 6102,
    "Botschaft": 6103,
    "obligations": 6104,
    "keeping": 6105,
    "origin@@": 6106,
    "conc@@": 6107,
    "Phase": 6108,
    "advantages": 6109,
    "Obama": 6110,
    "0,@@": 6111,
    "Media": 6112,
    "race": 6113,
    "Meeres@@": 6114,
    "north": 6115,
    "yesterday": 6116,
    "halt": 6117,
    "staatlichen": 6118,
    "tis": 6119,
    "Hoffnung": 6120,
    "mut@@": 6121,
    "Risiko": 6122,
    "dly": 6123,
    "Nutzer": 6124,
    "eng": 6125,
    "Pen@@": 6126,
    "tens": 6127,
    "Kenn@@": 6128,
    "beachten": 6129,
    "SE@@": 6130,
    "lake": 6131,
    "Those": 6132,
    "F\u00fchrung": 6133,
    "contained": 6134,
    "bildung": 6135,
    "planned": 6136,
    "Regulation": 6137,
    "f\u00fchlen": 6138,
    "0er": 6139,
    "tives": 6140,
    "intensive": 6141,
    "atory": 6142,
    "\u00f6n@@": 6143,
    "binding": 6144,
    "getragen": 6145,
    "counter@@": 6146,
    "qualified": 6147,
    "obvious": 6148,
    "produk@@": 6149,
    "down@@": 6150,
    "reise": 6151,
    "ber\u00fchmten": 6152,
    "damals": 6153,
    "legung": 6154,
    "Sprach@@": 6155,
    "produktion": 6156,
    "Inseln": 6157,
    "recommendations": 6158,
    "waiting": 6159,
    "looks": 6160,
    "ports": 6161,
    "Q": 6162,
    "Hon@@": 6163,
    "sicher@@": 6164,
    "wichtigste": 6165,
    "1992": 6166,
    "Farb@@": 6167,
    "decades": 6168,
    "Grundsatz": 6169,
    "Mus@@": 6170,
    "mass": 6171,
    "PR@@": 6172,
    "acht@@": 6173,
    "nearly": 6174,
    "participants": 6175,
    "equality": 6176,
    "allgemeine": 6177,
    "O-@@": 6178,
    "Market": 6179,
    "Agency": 6180,
    "tically": 6181,
    "cri@@": 6182,
    "Fisch@@": 6183,
    "factor": 6184,
    "bringing": 6185,
    "Teilen": 6186,
    "M\u00f6@@": 6187,
    "stellte": 6188,
    "sobald": 6189,
    "ered": 6190,
    "capable": 6191,
    "geschieht": 6192,
    "zo@@": 6193,
    "Vom": 6194,
    "f\u00e4lle": 6195,
    "foot": 6196,
    "situations": 6197,
    "kor@@": 6198,
    "\u00f6h@@": 6199,
    "governance": 6200,
    "def@@": 6201,
    "punkt": 6202,
    "Both": 6203,
    "vier@@": 6204,
    "expenditure": 6205,
    "recovery": 6206,
    "siert": 6207,
    "globale": 6208,
    "consists": 6209,
    "Rome": 6210,
    "tete": 6211,
    "communities": 6212,
    "unden": 6213,
    "Paul": 6214,
    "f\u00fchrer": 6215,
    "putting": 6216,
    "einzigen": 6217,
    "jungen": 6218,
    "Winter@@": 6219,
    "pointed": 6220,
    "sat@@": 6221,
    "stations": 6222,
    "landscape": 6223,
    "seeking": 6224,
    "merely": 6225,
    "species": 6226,
    "h\u00e4ngt": 6227,
    "65": 6228,
    "regelm\u00e4\u00dfig": 6229,
    "vous": 6230,
    "ECU": 6231,
    "dimension": 6232,
    "Beach": 6233,
    "manufacturing": 6234,
    "omm@@": 6235,
    "ards": 6236,
    "Hinweis": 6237,
    "dynamic": 6238,
    "flu@@": 6239,
    "wirtschaft": 6240,
    "ual": 6241,
    "anz": 6242,
    "reden": 6243,
    "Firmen": 6244,
    "Grunde": 6245,
    "smaller": 6246,
    "leads": 6247,
    "prevention": 6248,
    "Bedarf": 6249,
    "MS": 6250,
    "satellite": 6251,
    "trifft": 6252,
    "ania": 6253,
    "einverstanden": 6254,
    "disp@@": 6255,
    "\u0435": 6256,
    "High@@": 6257,
    "nachhaltige": 6258,
    "festgestellt": 6259,
    "ungst@@": 6260,
    "boo@@": 6261,
    "Fraktionen": 6262,
    "Friedens@@": 6263,
    "Beihilfen": 6264,
    "pers\u00f6nliche": 6265,
    "Hauptstadt": 6266,
    "Voraussetzungen": 6267,
    "AS": 6268,
    "Stu@@": 6269,
    "store": 6270,
    "substantial": 6271,
    "Vorteil": 6272,
    "Energy": 6273,
    "H\u00e4lfte": 6274,
    "Teil@@": 6275,
    "Gegenteil": 6276,
    "Zahlungs@@": 6277,
    "Einkaufs@@": 6278,
    "ch-@@": 6279,
    "gene": 6280,
    "aum": 6281,
    "Other": 6282,
    "w\u00fcr@@": 6283,
    "mechanism": 6284,
    "Ban@@": 6285,
    "medium-sized": 6286,
    "Ebenso": 6287,
    "Square": 6288,
    "Dimension": 6289,
    "disposal": 6290,
    "Korea": 6291,
    "Vis@@": 6292,
    "servi@@": 6293,
    "Kredit@@": 6294,
    "sprache": 6295,
    "registration": 6296,
    "i.e.": 6297,
    "ba": 6298,
    "Pro": 6299,
    "consistent": 6300,
    "denk@@": 6301,
    "\u00f6s@@": 6302,
    "e.@@": 6303,
    ",00": 6304,
    "zugleich": 6305,
    "turned": 6306,
    "vorgeschlagenen": 6307,
    "Rot@@": 6308,
    "dur@@": 6309,
    "rapid": 6310,
    "Welche": 6311,
    "bewegen": 6312,
    "Pf@@": 6313,
    "Hol@@": 6314,
    "entgegen@@": 6315,
    "betroffen": 6316,
    "mode": 6317,
    "Men@@": 6318,
    "St\u00e4dte": 6319,
    "Pic@@": 6320,
    "Bestandteil": 6321,
    "berei@@": 6322,
    "64": 6323,
    "j\u00e4hrlich": 6324,
    "Fo@@": 6325,
    "contemporary": 6326,
    "trag": 6327,
    "stabili@@": 6328,
    "Summit": 6329,
    "Tages@@": 6330,
    "staaten": 6331,
    "Wettbewerbs@@": 6332,
    "ssi@@": 6333,
    "fs": 6334,
    "Kontroll@@": 6335,
    "seh@@": 6336,
    "testing": 6337,
    "Netz@@": 6338,
    "regeln": 6339,
    "Any": 6340,
    "guaranteed": 6341,
    "ingen": 6342,
    "dad": 6343,
    "kop@@": 6344,
    "eiten": 6345,
    "acceptable": 6346,
    "causes": 6347,
    "browser": 6348,
    "entwicklung": 6349,
    "named": 6350,
    "stra\u00dfe": 6351,
    "ening": 6352,
    "cking": 6353,
    "Infrastruktur": 6354,
    "Vertrags@@": 6355,
    "extend": 6356,
    "spezi@@": 6357,
    "anbieten": 6358,
    "abo@@": 6359,
    "enth@@": 6360,
    "Out@@": 6361,
    "gent@@": 6362,
    "set@@": 6363,
    "Veranstaltungen": 6364,
    "meaning": 6365,
    "gew\u00e4hlt": 6366,
    "physi@@": 6367,
    "Pr\u00fcfung": 6368,
    "ersch@@": 6369,
    "fy": 6370,
    "Global": 6371,
    "Holz@@": 6372,
    "driving": 6373,
    "schneller": 6374,
    "edge": 6375,
    "ries": 6376,
    "brings": 6377,
    "Landschaft": 6378,
    "Spezi@@": 6379,
    "Royal": 6380,
    "ites": 6381,
    "Klimaanlage": 6382,
    "praktisch": 6383,
    "glass": 6384,
    "erenden": 6385,
    "versions": 6386,
    "traditionellen": 6387,
    "bahn": 6388,
    "aries": 6389,
    "fron@@": 6390,
    "compliance": 6391,
    "ehen": 6392,
    "arms": 6393,
    "wodurch": 6394,
    "Internationalen": 6395,
    "examples": 6396,
    "r\u00e4ume": 6397,
    "gr\u00fcn@@": 6398,
    "u.": 6399,
    "tr\u00e4@@": 6400,
    "Farben": 6401,
    "Ruhe": 6402,
    "Rules": 6403,
    "42": 6404,
    "Bern@@": 6405,
    "Ausland": 6406,
    "resulting": 6407,
    "Winter": 6408,
    "spread": 6409,
    "betroffenen": 6410,
    "compl@@": 6411,
    "wagen": 6412,
    "besch\u00e4ftigt": 6413,
    "Angebote": 6414,
    "politisch": 6415,
    "ba@@": 6416,
    "pass@@": 6417,
    "treated": 6418,
    "herzlich": 6419,
    "cour@@": 6420,
    "determined": 6421,
    ".00": 6422,
    "Thanks": 6423,
    "Sweden": 6424,
    "Gef@@": 6425,
    "Zahlen": 6426,
    "ately": 6427,
    "ths": 6428,
    "stes": 6429,
    "primary": 6430,
    "Island": 6431,
    "conclude": 6432,
    "ching": 6433,
    "aming": 6434,
    "Flu@@": 6435,
    "golf": 6436,
    "object": 6437,
    "Details": 6438,
    "spa": 6439,
    "vorschlagen": 6440,
    "Doppel@@": 6441,
    "Buch": 6442,
    "ecken": 6443,
    "Dienst": 6444,
    "Stat@@": 6445,
    "Unabh\u00e4ngigkeit": 6446,
    "ier": 6447,
    "Environment": 6448,
    "block": 6449,
    "optimal": 6450,
    "angeht": 6451,
    "tende": 6452,
    "tab@@": 6453,
    "Zimmern": 6454,
    "adequate": 6455,
    "OS@@": 6456,
    "pleasure": 6457,
    "wait": 6458,
    "seven": 6459,
    "\u00f6l@@": 6460,
    "pour": 6461,
    "Gesetzgebung": 6462,
    "Erh\u00f6hung": 6463,
    "fr\u00fcher": 6464,
    "aufen": 6465,
    "forest": 6466,
    "As@@": 6467,
    "patients": 6468,
    "unk@@": 6469,
    "val": 6470,
    "attacks": 6471,
    "spaces": 6472,
    "Aufgrund": 6473,
    "explain": 6474,
    "addressed": 6475,
    "Struktur": 6476,
    "Martin": 6477,
    "sum": 6478,
    "fuel": 6479,
    "05": 6480,
    "oli@@": 6481,
    "JavaScript": 6482,
    "migration": 6483,
    "vollkommen": 6484,
    "Trotz": 6485,
    "aging": 6486,
    "my@@": 6487,
    "welchen": 6488,
    "zur\u00fcckzu@@": 6489,
    "weiteres": 6490,
    "begann": 6491,
    "responsibilities": 6492,
    "Material": 6493,
    "k\u00fcrzlich": 6494,
    "nations": 6495,
    "ici@@": 6496,
    "radio": 6497,
    "soft": 6498,
    "junge": 6499,
    "digung": 6500,
    "bers": 6501,
    "96": 6502,
    "industries": 6503,
    "strengthening": 6504,
    "association": 6505,
    "Format": 6506,
    "older": 6507,
    "lich@@": 6508,
    "stoffen": 6509,
    "besseren": 6510,
    "oral": 6511,
    "woh@@": 6512,
    "enh@@": 6513,
    "THE": 6514,
    "extreme": 6515,
    "Kre@@": 6516,
    "3.": 6517,
    "ez": 6518,
    "agen": 6519,
    "ita": 6520,
    "\u00dcberpr\u00fcfung": 6521,
    "Time": 6522,
    "Charakter": 6523,
    "K\u00f6nigreich": 6524,
    "eur@@": 6525,
    "multi-@@": 6526,
    "Alliance": 6527,
    "einerseits": 6528,
    "sky": 6529,
    "bedroom": 6530,
    "z\u00e4hlt": 6531,
    "Na@@": 6532,
    "diskutiert": 6533,
    "wir@@": 6534,
    "talks": 6535,
    "ward": 6536,
    "hum@@": 6537,
    "Ratspr\u00e4sident": 6538,
    "49": 6539,
    "schools": 6540,
    "Unternehmens": 6541,
    "tests": 6542,
    "identity": 6543,
    "by@@": 6544,
    "Bus": 6545,
    "IP@@": 6546,
    "tenden": 6547,
    "Serie": 6548,
    "Stadtzentrum": 6549,
    "IA": 6550,
    "evaluation": 6551,
    "Methoden": 6552,
    "Innen@@": 6553,
    "Liberalisierung": 6554,
    "reagieren": 6555,
    "fand": 6556,
    "primarily": 6557,
    "atischen": 6558,
    "kri@@": 6559,
    "remove": 6560,
    "Laufe": 6561,
    "tr\u00e4ge": 6562,
    "rati@@": 6563,
    "Pool": 6564,
    "ela": 6565,
    "kes": 6566,
    "GDP": 6567,
    "M\u00e4nner": 6568,
    "temporary": 6569,
    "realis@@": 6570,
    "kers": 6571,
    "sch\u00f6n": 6572,
    "notice": 6573,
    "urban": 6574,
    "Nice": 6575,
    "Verbraucher@@": 6576,
    "kinds": 6577,
    "dlich": 6578,
    "sun@@": 6579,
    "97": 6580,
    "Enjoy": 6581,
    "250": 6582,
    "f\u00e4llen": 6583,
    "steel": 6584,
    "previously": 6585,
    "thereby": 6586,
    "Bewegung": 6587,
    "Financial": 6588,
    "bezieht": 6589,
    "Dutch": 6590,
    "ING": 6591,
    "G\u00e4sten": 6592,
    "esen": 6593,
    "gol@@": 6594,
    "multiple": 6595,
    "Red@@": 6596,
    "investments": 6597,
    "requested": 6598,
    "liefern": 6599,
    "EU@@": 6600,
    "wh@@": 6601,
    "quick": 6602,
    "dia": 6603,
    "Licht": 6604,
    "consensus": 6605,
    "ball": 6606,
    "Hin@@": 6607,
    "einzelne": 6608,
    "\u00dft": 6609,
    "accounts": 6610,
    "Mehr": 6611,
    "liability": 6612,
    "Diskriminierung": 6613,
    "Teilnehmer": 6614,
    "Mad@@": 6615,
    "bing": 6616,
    "Liebe": 6617,
    "160": 6618,
    "discussing": 6619,
    "Romania": 6620,
    "delay": 6621,
    "abh\u00e4ngig": 6622,
    "hafte": 6623,
    "Link": 6624,
    "stimmt": 6625,
    "ierungs@@": 6626,
    "spezifischen": 6627,
    "sl@@": 6628,
    "sem@@": 6629,
    "ail@@": 6630,
    "insi@@": 6631,
    "bedeut@@": 6632,
    "ath": 6633,
    "ented": 6634,
    "tierung": 6635,
    "bequem": 6636,
    "visible": 6637,
    "bereiche": 6638,
    "26@@": 6639,
    "Grenze": 6640,
    "Mil@@": 6641,
    "strategie": 6642,
    "copy": 6643,
    "delivered": 6644,
    "Netzwerk": 6645,
    "bel": 6646,
    "ads": 6647,
    "Klimawandel": 6648,
    "gone": 6649,
    "gliche": 6650,
    "fi": 6651,
    "skin": 6652,
    "Waren": 6653,
    "F\u00e4higkeit": 6654,
    "Ordnung": 6655,
    "head@@": 6656,
    "1993": 6657,
    "wil@@": 6658,
    "tran@@": 6659,
    "leadership": 6660,
    "barer": 6661,
    "seitens": 6662,
    "\u00ea@@": 6663,
    "tou@@": 6664,
    "representative": 6665,
    "Despite": 6666,
    "85": 6667,
    "F\u00e4lle": 6668,
    "intensi@@": 6669,
    "bildet": 6670,
    "pension": 6671,
    "willing": 6672,
    "competence": 6673,
    "rail": 6674,
    "hilfe": 6675,
    "tern@@": 6676,
    "karte": 6677,
    "ning": 6678,
    "Suite": 6679,
    "technological": 6680,
    "Buch@@": 6681,
    "opposite": 6682,
    "Dokumente": 6683,
    "Westen": 6684,
    "Lehr@@": 6685,
    "Wander@@": 6686,
    "Koordinierung": 6687,
    "tar@@": 6688,
    "Eis@@": 6689,
    "akzeptiert": 6690,
    "default": 6691,
    "Maria": 6692,
    "avi@@": 6693,
    "s.@@": 6694,
    "feeling": 6695,
    "Tiere": 6696,
    "Reaktion": 6697,
    "IB@@": 6698,
    "20.": 6699,
    "ax@@": 6700,
    "dos": 6701,
    "tal": 6702,
    "Minutes": 6703,
    "gewal@@": 6704,
    "positiven": 6705,
    "PC@@": 6706,
    "gesellschaft": 6707,
    "Brenn@@": 6708,
    "lag": 6709,
    "sters": 6710,
    "southern": 6711,
    "controlled": 6712,
    "manufacturers": 6713,
    "wen@@": 6714,
    "Freunde": 6715,
    "prepare": 6716,
    "Pop@@": 6717,
    "betont": 6718,
    "Nutz@@": 6719,
    "Anpassung": 6720,
    "all-@@": 6721,
    "dealt": 6722,
    "ws": 6723,
    "Versuch": 6724,
    "Handel@@": 6725,
    "ign@@": 6726,
    "Kombination": 6727,
    "spezifische": 6728,
    "diversity": 6729,
    "zus@@": 6730,
    "Pas@@": 6731,
    "SO@@": 6732,
    "Boo@@": 6733,
    "Milit\u00e4r@@": 6734,
    "ktion": 6735,
    "Regierungs@@": 6736,
    "Unterschiede": 6737,
    "Gef\u00fchl": 6738,
    "sicherstellen": 6739,
    "taste": 6740,
    "letter": 6741,
    "Willen": 6742,
    "affect": 6743,
    "Amerika": 6744,
    "kal@@": 6745,
    "it\u00e4ts@@": 6746,
    "PL@@": 6747,
    "wealth": 6748,
    "aria": 6749,
    "urge": 6750,
    "The@@": 6751,
    "Rau@@": 6752,
    "l\u00e4ndlichen": 6753,
    "Day": 6754,
    "PH@@": 6755,
    "wirkt": 6756,
    "sanctions": 6757,
    "speakers": 6758,
    "Erd@@": 6759,
    "moved": 6760,
    "runs": 6761,
    "forum": 6762,
    "quote": 6763,
    "Dadurch": 6764,
    "kenn@@": 6765,
    "ambi@@": 6766,
    "represented": 6767,
    "conduct": 6768,
    "\u00f3n": 6769,
    "Stunde": 6770,
    "compatible": 6771,
    "verlieren": 6772,
    "ker@@": 6773,
    "uri@@": 6774,
    "stoff@@": 6775,
    "\u00fcbernommen": 6776,
    "Nu@@": 6777,
    "Wegen": 6778,
    "Umst\u00e4nden": 6779,
    "\u00ed": 6780,
    "diverse": 6781,
    "ple@@": 6782,
    "lig@@": 6783,
    "8-@@": 6784,
    "Two": 6785,
    "isch@@": 6786,
    "Vorbereitung": 6787,
    "regionale": 6788,
    "ge-@@": 6789,
    "h\u00f6chste": 6790,
    "K\u00f6rper": 6791,
    "significantly": 6792,
    "testen": 6793,
    "Before": 6794,
    "Gesetze": 6795,
    "Telefon": 6796,
    "lar@@": 6797,
    "Sc@@": 6798,
    "approval": 6799,
    "eins": 6800,
    "dritten": 6801,
    "06": 6802,
    "Find": 6803,
    "S\u00fcden": 6804,
    "EG": 6805,
    "andererseits": 6806,
    "ater@@": 6807,
    "Via": 6808,
    "Zustand": 6809,
    "GB": 6810,
    "author": 6811,
    "noise": 6812,
    "basiert": 6813,
    "strength": 6814,
    "breite": 6815,
    "esi@@": 6816,
    "nochmals": 6817,
    "AT": 6818,
    "handel": 6819,
    "zeu@@": 6820,
    "anz@@": 6821,
    "ehemaligen": 6822,
    "zustimmen": 6823,
    "Anliegen": 6824,
    "ys@@": 6825,
    "viel@@": 6826,
    "Aut@@": 6827,
    "Diskussionen": 6828,
    "Lam@@": 6829,
    "ergeben": 6830,
    "tiv": 6831,
    "verst\u00e4rkt": 6832,
    "recommended": 6833,
    "eit": 6834,
    "shape": 6835,
    "destination": 6836,
    "Raum@@": 6837,
    "Strategien": 6838,
    "hof": 6839,
    "Hilfs@@": 6840,
    "Ther@@": 6841,
    "genen": 6842,
    "expertise": 6843,
    "Bahnhof": 6844,
    "ckt": 6845,
    "Vielleicht": 6846,
    "Such@@": 6847,
    "Eigenschaften": 6848,
    "tend": 6849,
    "nden": 6850,
    "Teilnahme": 6851,
    "ine@@": 6852,
    "ght": 6853,
    "launched": 6854,
    "tours": 6855,
    "Back@@": 6856,
    "gewisse": 6857,
    "ativen": 6858,
    "stan@@": 6859,
    "bericht": 6860,
    "Standard@@": 6861,
    "aut": 6862,
    "Delegation": 6863,
    "ku@@": 6864,
    "n\u00f6tig": 6865,
    "Roman": 6866,
    "stoff": 6867,
    "wiederum": 6868,
    "Einklang": 6869,
    "sin@@": 6870,
    "Support": 6871,
    "Anlage": 6872,
    "\u00fch@@": 6873,
    "seien": 6874,
    "improvements": 6875,
    "PS": 6876,
    "voran@@": 6877,
    "UT@@": 6878,
    "charming": 6879,
    "parti@@": 6880,
    "mechanisms": 6881,
    "Projekt@@": 6882,
    "Mein": 6883,
    "bit@@": 6884,
    "highlight": 6885,
    "Studie": 6886,
    "helping": 6887,
    "Bedenken": 6888,
    "knows": 6889,
    "relatively": 6890,
    "websites": 6891,
    "Kol@@": 6892,
    "soweit": 6893,
    "Bon@@": 6894,
    "length": 6895,
    "amongst": 6896,
    "sicht": 6897,
    "gestern": 6898,
    "helps": 6899,
    "mutual": 6900,
    "derzeitigen": 6901,
    "IC": 6902,
    "haltung": 6903,
    "digt": 6904,
    "engineering": 6905,
    "refugees": 6906,
    "Freude": 6907,
    "zunehmend": 6908,
    "fruit": 6909,
    "expectations": 6910,
    "vielmehr": 6911,
    "consultation": 6912,
    "lab@@": 6913,
    "ce-@@": 6914,
    "AV@@": 6915,
    "reply": 6916,
    "Schule": 6917,
    "sieben": 6918,
    "White": 6919,
    "WC": 6920,
    "sieren": 6921,
    "covers": 6922,
    "Kollege": 6923,
    "bedrooms": 6924,
    "Poker": 6925,
    "Spiele": 6926,
    "trees": 6927,
    "tr\u00e4gen": 6928,
    "MO@@": 6929,
    "Verf\u00fcgbarkeit": 6930,
    "auer": 6931,
    "verlangen": 6932,
    "39": 6933,
    "experiences": 6934,
    "esch@@": 6935,
    "Rotary": 6936,
    "except": 6937,
    "sta": 6938,
    "delegation": 6939,
    "erende": 6940,
    "requests": 6941,
    "interpre@@": 6942,
    "Tru@@": 6943,
    "keiner": 6944,
    "Kunde": 6945,
    "presentation": 6946,
    "sold": 6947,
    "Express": 6948,
    "zur@@": 6949,
    "21.": 6950,
    "umfassenden": 6951,
    "Voraussetzung": 6952,
    "amerikanische": 6953,
    "acting": 6954,
    "Munich": 6955,
    "Mikro@@": 6956,
    "ED@@": 6957,
    "Schl@@": 6958,
    "identi@@": 6959,
    "linie": 6960,
    "Sanktionen": 6961,
    "p.m.": 6962,
    "unternommen": 6963,
    "Fern@@": 6964,
    "attitude": 6965,
    "Mur@@": 6966,
    "serves": 6967,
    "Wien": 6968,
    "pur@@": 6969,
    "Antworten": 6970,
    "units": 6971,
    "ide": 6972,
    "T-@@": 6973,
    "eld": 6974,
    "privacy": 6975,
    "sierung": 6976,
    "hau@@": 6977,
    "Lebensmittel@@": 6978,
    "echten": 6979,
    "weltweiten": 6980,
    "Fe@@": 6981,
    "western": 6982,
    "egen": 6983,
    "Stra\u00dfen@@": 6984,
    "schei@@": 6985,
    "taxes": 6986,
    "ghts": 6987,
    "finding": 6988,
    "Ob": 6989,
    "genauso": 6990,
    "system@@": 6991,
    "sw@@": 6992,
    "historische": 6993,
    "Gener@@": 6994,
    "anerkannt": 6995,
    "solve": 6996,
    "Book": 6997,
    "ake": 6998,
    "werfen": 6999,
    "wichtiges": 7000,
    "discovered": 7001,
    "\\": 7002,
    "Prodi": 7003,
    "Geist": 7004,
    "respective": 7005,
    "trotzdem": 7006,
    "articles": 7007,
    "pic@@": 7008,
    "boat": 7009,
    "02": 7010,
    "ativ": 7011,
    "Formular": 7012,
    "tritt": 7013,
    "Mas@@": 7014,
    "befassen": 7015,
    "Plaza": 7016,
    "ello": 7017,
    "furniture": 7018,
    "Tod": 7019,
    "fill": 7020,
    "qualit\u00e4t": 7021,
    "aktive": 7022,
    "F-@@": 7023,
    "gegen@@": 7024,
    "ausschusses": 7025,
    "Ci@@": 7026,
    "Fort@@": 7027,
    "Technology": 7028,
    "deiner": 7029,
    "03": 7030,
    "heraus": 7031,
    "streets": 7032,
    "hilft": 7033,
    "Allgemeinen": 7034,
    "elled": 7035,
    "Zoll@@": 7036,
    "faced": 7037,
    "dishes": 7038,
    "beh\u00f6rden": 7039,
    "cheap": 7040,
    "heits@@": 7041,
    "h\u00f6here": 7042,
    "dinner": 7043,
    "Effizienz": 7044,
    "3D": 7045,
    "ize": 7046,
    "tain": 7047,
    "Wider@@": 7048,
    "profit": 7049,
    "fighting": 7050,
    "Grundrechte": 7051,
    "Mul@@": 7052,
    "drugs": 7053,
    "weit@@": 7054,
    "Apartment": 7055,
    "med": 7056,
    "behandeln": 7057,
    "Zugriff": 7058,
    "Bes@@": 7059,
    "Take": 7060,
    "schen@@": 7061,
    "obligation": 7062,
    "Tit@@": 7063,
    "politicians": 7064,
    "regret": 7065,
    "X-@@": 7066,
    "latter": 7067,
    "appeal": 7068,
    "Untersuchung": 7069,
    "Architektur": 7070,
    "Verhalten": 7071,
    "log": 7072,
    "Karten": 7073,
    "texts": 7074,
    "kleiner": 7075,
    "rejected": 7076,
    "Sitz": 7077,
    "ziemlich": 7078,
    "preis": 7079,
    "Definition": 7080,
    "hoher": 7081,
    "K\u00fcste": 7082,
    "spot": 7083,
    "Leistungs@@": 7084,
    "temperature": 7085,
    "sorgt": 7086,
    "ruhigen": 7087,
    "Ber\u00fccksichtigung": 7088,
    "appreciate": 7089,
    "compensation": 7090,
    "fantastic": 7091,
    "esses": 7092,
    "ati": 7093,
    "\u00dcbereinkommen": 7094,
    "Fra@@": 7095,
    "700": 7096,
    "River": 7097,
    "healthy": 7098,
    "Power@@": 7099,
    "entered": 7100,
    "emphasis": 7101,
    "error": 7102,
    "jemand": 7103,
    "tan@@": 7104,
    "Camp@@": 7105,
    "dienste": 7106,
    "constant": 7107,
    "arrangements": 7108,
    "Welcome": 7109,
    "walls": 7110,
    "konkreten": 7111,
    "Sch\u00e4den": 7112,
    "gelungen": 7113,
    "120": 7114,
    "Tats\u00e4chlich": 7115,
    "Wa@@": 7116,
    "Mak@@": 7117,
    "emphasise": 7118,
    "Aqu@@": 7119,
    "recognise": 7120,
    "Kapital@@": 7121,
    "duc@@": 7122,
    "extension": 7123,
    "seeing": 7124,
    "willkommen": 7125,
    "dungen": 7126,
    "Gold": 7127,
    "exists": 7128,
    "Beifall": 7129,
    "10.@@": 7130,
    "deb@@": 7131,
    "\u0441\u0442@@": 7132,
    "Fri@@": 7133,
    "PDF": 7134,
    "tom@@": 7135,
    "betreffen": 7136,
    "q@@": 7137,
    "Grunds\u00e4tze": 7138,
    "producing": 7139,
    "niemand": 7140,
    "watch": 7141,
    "1000": 7142,
    "menschlichen": 7143,
    "reflect": 7144,
    "buchen": 7145,
    "wesen": 7146,
    "Putin": 7147,
    "erh\u00e4ltlich": 7148,
    "Lag@@": 7149,
    "ills": 7150,
    "Auftrag": 7151,
    "ox@@": 7152,
    "sions@@": 7153,
    "0.000": 7154,
    "figure": 7155,
    "handling": 7156,
    "User": 7157,
    "acy": 7158,
    "resolve": 7159,
    "sch\u00e4tzen": 7160,
    "Sand@@": 7161,
    "objects": 7162,
    "truth": 7163,
    "eff@@": 7164,
    "Britain": 7165,
    "Chamber": 7166,
    "cycle": 7167,
    "Paper": 7168,
    "Eng@@": 7169,
    "ey@@": 7170,
    "suffering": 7171,
    "Lebens": 7172,
    "kin@@": 7173,
    "Vertr\u00e4ge": 7174,
    "mod@@": 7175,
    "Use": 7176,
    "helped": 7177,
    "sse": 7178,
    "gemein@@": 7179,
    "ours": 7180,
    "Fil@@": 7181,
    "arbei@@": 7182,
    "ura": 7183,
    "mitten": 7184,
    "operators": 7185,
    "dates": 7186,
    "betr\u00e4gt": 7187,
    "nam@@": 7188,
    "intention": 7189,
    "master": 7190,
    "audio": 7191,
    "gespielt": 7192,
    "nte": 7193,
    "44": 7194,
    "entdecken": 7195,
    "tra": 7196,
    "substances": 7197,
    "Mari@@": 7198,
    "profile": 7199,
    "proof": 7200,
    "comply": 7201,
    "Lord": 7202,
    "erscheinen": 7203,
    "Letz@@": 7204,
    "Materialien": 7205,
    "Rat@@": 7206,
    "Bau": 7207,
    "reserve": 7208,
    "aly@@": 7209,
    "output": 7210,
    "parallel": 7211,
    "liste": 7212,
    "sign@@": 7213,
    "k\u00fcnftig": 7214,
    "bon@@": 7215,
    "S.": 7216,
    "ala": 7217,
    "Leitlinien": 7218,
    "sur": 7219,
    "whatever": 7220,
    "formen": 7221,
    "OR": 7222,
    "spec@@": 7223,
    "Ma\u00dfnahme": 7224,
    "David": 7225,
    "Norden": 7226,
    "schlie\u00dft": 7227,
    "soci@@": 7228,
    "affairs": 7229,
    "Fernseh@@": 7230,
    "dischen": 7231,
    "NL": 7232,
    "th-@@": 7233,
    "mobility": 7234,
    "Verbrechen": 7235,
    "begonnen": 7236,
    "drawing": 7237,
    "Alp@@": 7238,
    "er\u00f6ffnet": 7239,
    "happens": 7240,
    "valuable": 7241,
    "School": 7242,
    "cross-border": 7243,
    "disaster": 7244,
    "Werk": 7245,
    "Gei@@": 7246,
    "elte": 7247,
    "Liber@@": 7248,
    "hostels": 7249,
    "Ambiente": 7250,
    "trac@@": 7251,
    "cel@@": 7252,
    "kulturelle": 7253,
    "entlang": 7254,
    "Nachfrage": 7255,
    "danger": 7256,
    "creative": 7257,
    "confirmed": 7258,
    "largely": 7259,
    "Anfragen": 7260,
    "alized": 7261,
    "info": 7262,
    "rau@@": 7263,
    "inzwischen": 7264,
    "wis@@": 7265,
    "marks": 7266,
    "president": 7267,
    "recognised": 7268,
    "entertainment": 7269,
    "applicable": 7270,
    "centres": 7271,
    "Ohne": 7272,
    "friend": 7273,
    "f\u00fchrende": 7274,
    "Wirtschafts-": 7275,
    "eigenes": 7276,
    "audi@@": 7277,
    "lang@@": 7278,
    "tut": 7279,
    "naturally": 7280,
    "V\u00f6lker": 7281,
    "ticket": 7282,
    "Where": 7283,
    "album": 7284,
    "Rule": 7285,
    "diseases": 7286,
    "Wahrheit": 7287,
    "renewable": 7288,
    "Landwirte": 7289,
    "Datenbank": 7290,
    "Mehr@@": 7291,
    "produkte": 7292,
    "Kind": 7293,
    "arch@@": 7294,
    "wesentliche": 7295,
    "Old": 7296,
    "Dort": 7297,
    "Safety": 7298,
    "On@@": 7299,
    "fraud": 7300,
    "mental": 7301,
    "inst@@": 7302,
    "assist": 7303,
    "CO2": 7304,
    "alization": 7305,
    "erne": 7306,
    "eye": 7307,
    "Gedanken": 7308,
    "opposed": 7309,
    "zus\u00e4tzlichen": 7310,
    "Essen": 7311,
    "dir": 7312,
    "cc@@": 7313,
    "aches": 7314,
    "brechen": 7315,
    "x-@@": 7316,
    "italienischen": 7317,
    "RO": 7318,
    "Instead": 7319,
    "Absicht": 7320,
    "exclusively": 7321,
    "ash": 7322,
    "\u0142@@": 7323,
    "dining": 7324,
    "hinter@@": 7325,
    "sten@@": 7326,
    "kurzem": 7327,
    "atoren": 7328,
    "Erwartungen": 7329,
    "sofern": 7330,
    "A3@@": 7331,
    "staatliche": 7332,
    "wards": 7333,
    "Berufs@@": 7334,
    "personally": 7335,
    "chain": 7336,
    "wissenschaftlichen": 7337,
    "fein@@": 7338,
    "pose": 7339,
    "institutionellen": 7340,
    "separ@@": 7341,
    "dans": 7342,
    "spring": 7343,
    "Ra@@": 7344,
    "Ferner": 7345,
    "interessiert": 7346,
    "43": 7347,
    "automatic": 7348,
    "outdoor": 7349,
    "eight": 7350,
    "Japanese": 7351,
    "Schaden": 7352,
    "teren": 7353,
    "charges": 7354,
    "Strategy": 7355,
    "Sach@@": 7356,
    "Park@@": 7357,
    "waters": 7358,
    "ligh@@": 7359,
    "Rob@@": 7360,
    "millions": 7361,
    "PS@@": 7362,
    "let@@": 7363,
    "rasch": 7364,
    "angemessen": 7365,
    "zahl@@": 7366,
    "Ministers": 7367,
    "burden": 7368,
    "sch\u00f6nsten": 7369,
    "LO@@": 7370,
    "manager": 7371,
    "ernst": 7372,
    "officials": 7373,
    "miss@@": 7374,
    "USD": 7375,
    "installiert": 7376,
    "cent": 7377,
    "whilst": 7378,
    "DA": 7379,
    "Ant@@": 7380,
    "leisure": 7381,
    "volume": 7382,
    "impressive": 7383,
    "f\u00e4hig": 7384,
    "Europ@@": 7385,
    "fail": 7386,
    "fies": 7387,
    "ver\u00e4ndert": 7388,
    "zentralen": 7389,
    "tre": 7390,
    "them@@": 7391,
    "Mittelpunkt": 7392,
    "arian": 7393,
    "heavy": 7394,
    "entwickelten": 7395,
    "determine": 7396,
    "Ram@@": 7397,
    "Swedish": 7398,
    "dische": 7399,
    "dungs@@": 7400,
    "involving": 7401,
    "Kauf@@": 7402,
    "constructive": 7403,
    "grundlegenden": 7404,
    "27@@": 7405,
    "U.S.": 7406,
    "Entwicklungsl\u00e4ndern": 7407,
    "sy@@": 7408,
    "iten": 7409,
    "Fischerei": 7410,
    "Spar@@": 7411,
    "cy": 7412,
    "Versch@@": 7413,
    "1991": 7414,
    "exceptional": 7415,
    "Weiter@@": 7416,
    "ce@@": 7417,
    "Open@@": 7418,
    "Experten": 7419,
    "Kategorie": 7420,
    "rup@@": 7421,
    "deck@@": 7422,
    "increases": 7423,
    "pieces": 7424,
    "1989": 7425,
    "nat\u00fcrlichen": 7426,
    "castle": 7427,
    "fei@@": 7428,
    "195@@": 7429,
    "schwierigen": 7430,
    "Alternative": 7431,
    "Kosten@@": 7432,
    "journey": 7433,
    "su": 7434,
    "sauna": 7435,
    "Good": 7436,
    "neuesten": 7437,
    "hervorragende": 7438,
    "Angriff": 7439,
    "Shop": 7440,
    "criticism": 7441,
    "aner": 7442,
    "Schweden": 7443,
    "yes": 7444,
    "lets": 7445,
    "wechsel@@": 7446,
    "Beratung": 7447,
    "n\u00e4her": 7448,
    "holding": 7449,
    "couple": 7450,
    "offices": 7451,
    "locations": 7452,
    "Schengen": 7453,
    "41": 7454,
    "zweifellos": 7455,
    "Einstellung": 7456,
    "zieht": 7457,
    "gef\u00f6rdert": 7458,
    "2013": 7459,
    "Charter": 7460,
    "BR@@": 7461,
    "prove": 7462,
    "besitzen": 7463,
    "west": 7464,
    "amounts": 7465,
    "equally": 7466,
    "\u00f6ffnen": 7467,
    "schlag": 7468,
    "Verbesserungen": 7469,
    "Bil@@": 7470,
    "freundlich": 7471,
    "kostet": 7472,
    "l-@@": 7473,
    "Beispiele": 7474,
    "SM@@": 7475,
    "tag": 7476,
    "Tagung": 7477,
    "ausgezeichnete": 7478,
    "low-@@": 7479,
    "perform": 7480,
    "rechts@@": 7481,
    "lebens@@": 7482,
    "domin@@": 7483,
    "meist": 7484,
    "niemals": 7485,
    "Nov@@": 7486,
    "Foto": 7487,
    "top@@": 7488,
    "protecting": 7489,
    "decorated": 7490,
    "HT@@": 7491,
    "haf@@": 7492,
    "ero@@": 7493,
    "ando": 7494,
    "Verkauf": 7495,
    "welt@@": 7496,
    "asser@@": 7497,
    "laut": 7498,
    "cold": 7499,
    "zuerst": 7500,
    "command": 7501,
    "leaving": 7502,
    "George": 7503,
    "Englisch": 7504,
    "sens@@": 7505,
    "lovely": 7506,
    "east": 7507,
    "Normen": 7508,
    "erheblich": 7509,
    "Special": 7510,
    "Lab@@": 7511,
    "q": 7512,
    "mandate": 7513,
    "Bay": 7514,
    "Badezimmer": 7515,
    "passengers": 7516,
    "Dublin": 7517,
    "Sonnen@@": 7518,
    "erweitert": 7519,
    "Los": 7520,
    "5.": 7521,
    "Over": 7522,
    "bedeuten": 7523,
    "row": 7524,
    "Vil@@": 7525,
    "westlichen": 7526,
    "offenen": 7527,
    "bestand": 7528,
    "removed": 7529,
    "tickets": 7530,
    "Han@@": 7531,
    "mus@@": 7532,
    "residence": 7533,
    "obtained": 7534,
    "Klima": 7535,
    "Regime": 7536,
    "2012": 7537,
    "unmittelbar": 7538,
    "fassen": 7539,
    "peoples": 7540,
    "gert": 7541,
    "directives": 7542,
    "Form@@": 7543,
    "Stand@@": 7544,
    "finished": 7545,
    "spek@@": 7546,
    "doors": 7547,
    "brief": 7548,
    "schnelle": 7549,
    "ks@@": 7550,
    "teilnehmen": 7551,
    "hit": 7552,
    "Komp@@": 7553,
    "11.": 7554,
    "involvement": 7555,
    "mitt@@": 7556,
    "uss": 7557,
    "organizations": 7558,
    "olog@@": 7559,
    "weather": 7560,
    "Wirklichkeit": 7561,
    "Fenster": 7562,
    "bed@@": 7563,
    "fl\u00fc@@": 7564,
    "break@@": 7565,
    "weshalb": 7566,
    "Nahen": 7567,
    "mitteln": 7568,
    "parks": 7569,
    "treaty": 7570,
    "Ladies": 7571,
    "lle": 7572,
    "strategies": 7573,
    "password": 7574,
    "disc@@": 7575,
    "Cli@@": 7576,
    "zentr@@": 7577,
    "anlage": 7578,
    "ga": 7579,
    "Canada": 7580,
    "happening": 7581,
    "medium": 7582,
    "bezug": 7583,
    "CS@@": 7584,
    "h\u00f6chsten": 7585,
    "Bucht": 7586,
    "Tar@@": 7587,
    "einfachen": 7588,
    "entstanden": 7589,
    "ele": 7590,
    "Bru@@": 7591,
    "ences": 7592,
    "preis@@": 7593,
    "Strukturen": 7594,
    "father": 7595,
    "iss@@": 7596,
    "combating": 7597,
    "proved": 7598,
    "Hau@@": 7599,
    "Agrarpolitik": 7600,
    "Rechts": 7601,
    "Spe@@": 7602,
    "Their": 7603,
    "Unterschied": 7604,
    "-up": 7605,
    "ausgezeichneten": 7606,
    "allgemein": 7607,
    "depends": 7608,
    "kol@@": 7609,
    "M\u00fcnchen": 7610,
    "kurze": 7611,
    "starten": 7612,
    "berechtigt": 7613,
    "kan": 7614,
    "parents": 7615,
    "blue": 7616,
    "Ul@@": 7617,
    "Ausstattung": 7618,
    "maintained": 7619,
    "\u00fa@@": 7620,
    "hy@@": 7621,
    "fee": 7622,
    "Don@@": 7623,
    "IV@@": 7624,
    "eyes": 7625,
    "Boden": 7626,
    "lic": 7627,
    "cle@@": 7628,
    "Websites": 7629,
    "Geh@@": 7630,
    "verlangt": 7631,
    "Van": 7632,
    "markt@@": 7633,
    "ought": 7634,
    "\u00e4m@@": 7635,
    "kat@@": 7636,
    "fern": 7637,
    "or-@@": 7638,
    "Waffen": 7639,
    "ined": 7640,
    "Auto@@": 7641,
    "DS@@": 7642,
    "11.@@": 7643,
    "contributions": 7644,
    "remaining": 7645,
    "rot@@": 7646,
    "mot@@": 7647,
    "blog": 7648,
    "Ab": 7649,
    "grundlegende": 7650,
    "bem\u00fcht": 7651,
    "Halb@@": 7652,
    "ader": 7653,
    "ziele": 7654,
    "ress": 7655,
    "USB": 7656,
    "ective": 7657,
    "Tourismus": 7658,
    "aufzunehmen": 7659,
    "launch": 7660,
    "ests": 7661,
    "chinesischen": 7662,
    "creates": 7663,
    "s\u00e4tze": 7664,
    "define": 7665,
    "Ratsvorsitz": 7666,
    "F\u00fchrungs@@": 7667,
    "lam@@": 7668,
    "behalten": 7669,
    "ziert": 7670,
    "Croatia": 7671,
    "post-@@": 7672,
    "Dusche": 7673,
    "organisiert": 7674,
    "sho@@": 7675,
    "elling": 7676,
    "produziert": 7677,
    "urspr\u00fcnglichen": 7678,
    "z\u00e4h@@": 7679,
    "iting": 7680,
    "connections": 7681,
    "died": 7682,
    "pr\u00e4sentiert": 7683,
    "colour": 7684,
    "kten": 7685,
    "abroad": 7686,
    "renovated": 7687,
    "occasion": 7688,
    "\u00fcl@@": 7689,
    "nungs@@": 7690,
    "aktivieren": 7691,
    "occup@@": 7692,
    "pping": 7693,
    "balcony": 7694,
    "AND": 7695,
    "communications": 7696,
    "Empfehlung": 7697,
    "reifen": 7698,
    "Dorf": 7699,
    "Sou@@": 7700,
    "musste": 7701,
    "maschinen": 7702,
    "Maschinen": 7703,
    "\u00e4r": 7704,
    "ok": 7705,
    "Action": 7706,
    "Flash": 7707,
    "B-@@": 7708,
    "enheit": 7709,
    "entscheidend": 7710,
    "kte": 7711,
    "ental": 7712,
    "aro@@": 7713,
    "Film@@": 7714,
    "Vision": 7715,
    "discharge": 7716,
    "falsch": 7717,
    "Dem": 7718,
    "sexual": 7719,
    "Hostelsclub": 7720,
    "hall": 7721,
    "angel@@": 7722,
    "meat": 7723,
    "fle@@": 7724,
    "Stellung": 7725,
    "Stein@@": 7726,
    "Tex@@": 7727,
    "preparation": 7728,
    "spanischen": 7729,
    "f\u00e4l@@": 7730,
    "drink": 7731,
    "Anbieter": 7732,
    "weisung": 7733,
    "issued": 7734,
    "Bestellung": 7735,
    "ertes": 7736,
    "t\u00e4@@": 7737,
    "organized": 7738,
    "ov": 7739,
    "tigten": 7740,
    "zug\u00e4nglich": 7741,
    "rapporteurs": 7742,
    "Ausgangspunkt": 7743,
    "two-@@": 7744,
    "GNU": 7745,
    "Kab@@": 7746,
    "rou@@": 7747,
    "dge": 7748,
    "divided": 7749,
    "10-@@": 7750,
    "Ware": 7751,
    "restrictions": 7752,
    "Robert": 7753,
    "jahr": 7754,
    "Jedes": 7755,
    "k\u00e4mpfen": 7756,
    "Revolution": 7757,
    "riesigen": 7758,
    "reserves": 7759,
    "w\u00fcnsche": 7760,
    "King": 7761,
    "assure": 7762,
    "aut@@": 7763,
    "sation": 7764,
    "surroundings": 7765,
    "f\u00fcr@@": 7766,
    "requirement": 7767,
    "leiten": 7768,
    "4.": 7769,
    "resolved": 7770,
    "tierten": 7771,
    "ade@@": 7772,
    "F\u00f6rder@@": 7773,
    "Hafen": 7774,
    "Pflicht": 7775,
    "SI@@": 7776,
    "zig": 7777,
    "Kamera": 7778,
    "organis@@": 7779,
    "dritte": 7780,
    "famili@@": 7781,
    "\u00dcberzeugung": 7782,
    "Steuern": 7783,
    "repeat": 7784,
    "fal@@": 7785,
    "doesn": 7786,
    "Problems": 7787,
    "umzusetzen": 7788,
    "Ref@@": 7789,
    "schafft": 7790,
    "weist": 7791,
    "din@@": 7792,
    "load": 7793,
    "dorf": 7794,
    "ace": 7795,
    "Get": 7796,
    "collective": 7797,
    "ial": 7798,
    "messages": 7799,
    "Kin@@": 7800,
    "abgelehnt": 7801,
    "roads": 7802,
    "Kann": 7803,
    "Kooperation": 7804,
    "Cat@@": 7805,
    "owners": 7806,
    "K\u00fcnstler": 7807,
    "Airbus": 7808,
    "owner": 7809,
    "leiden": 7810,
    "dd@@": 7811,
    "Jan@@": 7812,
    "atis@@": 7813,
    "debates": 7814,
    "t\u00e4t": 7815,
    "demo@@": 7816,
    "ong@@": 7817,
    "definitely": 7818,
    "isch-@@": 7819,
    "cable": 7820,
    "gratulieren": 7821,
    "aged": 7822,
    "derartige": 7823,
    "Refer@@": 7824,
    "roll@@": 7825,
    "\u00f3": 7826,
    "Krankheiten": 7827,
    "Av@@": 7828,
    "klar@@": 7829,
    "Mol@@": 7830,
    "rein": 7831,
    "bike": 7832,
    "Ham@@": 7833,
    "cou@@": 7834,
    "Staat@@": 7835,
    "Projekten": 7836,
    "dienst@@": 7837,
    "psych@@": 7838,
    "Punkten": 7839,
    "identify": 7840,
    "licherweise": 7841,
    "verursacht": 7842,
    "USS": 7843,
    "M-@@": 7844,
    "lautet": 7845,
    "contracts": 7846,
    "04": 7847,
    "\u00fcbernimmt": 7848,
    "enzen": 7849,
    "Des": 7850,
    "h\u00f6her": 7851,
    "regulatory": 7852,
    "returned": 7853,
    "Ass@@": 7854,
    "minist@@": 7855,
    "eckt": 7856,
    "Lauf@@": 7857,
    "reich@@": 7858,
    "cent@@": 7859,
    "regularly": 7860,
    "Luxembourg": 7861,
    "Bulgaria": 7862,
    "m\u00e4@@": 7863,
    "els@@": 7864,
    "classic": 7865,
    "Angst": 7866,
    "preise": 7867,
    "betreffenden": 7868,
    "st\u00e4ndige": 7869,
    "etes": 7870,
    "Verbindungen": 7871,
    "modern@@": 7872,
    "opinions": 7873,
    "wand@@": 7874,
    "Front": 7875,
    "fordere": 7876,
    "Mitgliedschaft": 7877,
    "wirtschaftlicher": 7878,
    "investors": 7879,
    "precise": 7880,
    "Prof@@": 7881,
    "focused": 7882,
    "to-@@": 7883,
    "C.": 7884,
    "extrem": 7885,
    "vorgenommen": 7886,
    "characteristics": 7887,
    "46": 7888,
    "empf@@": 7889,
    "Abschnitt": 7890,
    "ky": 7891,
    "Gol@@": 7892,
    "Music": 7893,
    "Oper@@": 7894,
    "47": 7895,
    "wirksam": 7896,
    "erlauben": 7897,
    "hardware": 7898,
    "aussch@@": 7899,
    "funktionieren": 7900,
    "bild": 7901,
    "PRO@@": 7902,
    "Kop@@": 7903,
    "oning": 7904,
    "resolutions": 7905,
    "defend": 7906,
    "Ger\u00e4te": 7907,
    "Abkommens": 7908,
    "\u00f1@@": 7909,
    "anstatt": 7910,
    "vast": 7911,
    "jahr@@": 7912,
    "Kommunikations@@": 7913,
    "betrieb@@": 7914,
    "worse": 7915,
    "regul@@": 7916,
    "liberalisation": 7917,
    "add@@": 7918,
    "Harmonisierung": 7919,
    "enger": 7920,
    "driver": 7921,
    "ppe": 7922,
    "Bek@@": 7923,
    "vieler": 7924,
    "Under": 7925,
    "Post": 7926,
    "verschiedener": 7927,
    "Erholung": 7928,
    "systemen": 7929,
    "Sta@@": 7930,
    "Mac": 7931,
    "Lang@@": 7932,
    "maschine": 7933,
    "dynam@@": 7934,
    "Alter": 7935,
    "Stimm@@": 7936,
    "sehe": 7937,
    "zogen": 7938,
    "intend": 7939,
    "usses": 7940,
    "ced": 7941,
    "Immobilien@@": 7942,
    "faster": 7943,
    "freundliche": 7944,
    "AP@@": 7945,
    "bek\u00e4mpfen": 7946,
    "will@@": 7947,
    "EF@@": 7948,
    "Ang@@": 7949,
    "R-@@": 7950,
    "k\u00fcnftigen": 7951,
    "cho@@": 7952,
    "tierte": 7953,
    "durchzuf\u00fchren": 7954,
    "Executive": 7955,
    "continent": 7956,
    "vollst\u00e4ndige": 7957,
    "ea": 7958,
    "MEPs": 7959,
    "verstanden": 7960,
    "transportation": 7961,
    "Java": 7962,
    "Veranstaltung": 7963,
    "properties": 7964,
    "glad": 7965,
    "Gebrauch": 7966,
    "Zentral@@": 7967,
    "hundreds": 7968,
    "gi": 7969,
    "Farbe": 7970,
    "ron": 7971,
    "Struktur@@": 7972,
    "Black": 7973,
    "alities": 7974,
    "a.": 7975,
    "involve": 7976,
    "conflicts": 7977,
    "Herz@@": 7978,
    "Beweis": 7979,
    "proud": 7980,
    "egt": 7981,
    "transpor@@": 7982,
    "Eltern": 7983,
    "nahm": 7984,
    "Marina": 7985,
    "ored": 7986,
    "Hil@@": 7987,
    "Hal@@": 7988,
    "ierungen": 7989,
    "ffen": 7990,
    "Fel@@": 7991,
    "leben@@": 7992,
    "carbon": 7993,
    "awareness": 7994,
    "Will": 7995,
    "pl\u00e4tze": 7996,
    "OM@@": 7997,
    "ethnic": 7998,
    "ora": 7999,
    "Rum\u00e4nien": 8000,
    "ont": 8001,
    "suites": 8002,
    "impression": 8003,
    "topic": 8004,
    "Life": 8005,
    "Netz": 8006,
    "tory": 8007,
    "blu@@": 8008,
    "plays": 8009,
    "Ausf\u00fchrungen": 8010,
    "conducted": 8011,
    "stellungen": 8012,
    "Polish": 8013,
    "F\u00e4higkeiten": 8014,
    "umgeben": 8015,
    "realistic": 8016,
    "S.@@": 8017,
    "s.": 8018,
    "ergriffen": 8019,
    "mt": 8020,
    "facilitate": 8021,
    "weiten": 8022,
    "Gestaltung": 8023,
    "st\u00e4nde": 8024,
    "joined": 8025,
    "heating": 8026,
    "Sim@@": 8027,
    "Entwicklungsl\u00e4nder": 8028,
    "lots": 8029,
    "komme": 8030,
    "wers": 8031,
    "operational": 8032,
    "Partnern": 8033,
    "j\u00e4hrigen": 8034,
    "Wird": 8035,
    "sichere": 8036,
    "sinnvoll": 8037,
    "vern@@": 8038,
    "aufgefordert": 8039,
    "grow": 8040,
    "seat": 8041,
    "understood": 8042,
    "Procedure": 8043,
    "\u00a4": 8044,
    "Zimmer@@": 8045,
    "updated": 8046,
    "frequently": 8047,
    "Hy@@": 8048,
    "displayed": 8049,
    "trags": 8050,
    "Verhandlungs@@": 8051,
    "Ausnahme": 8052,
    "Reform@@": 8053,
    "confirm": 8054,
    "settings": 8055,
    "deals": 8056,
    "Box": 8057,
    "gers": 8058,
    "Spezial@@": 8059,
    "fla@@": 8060,
    "wirk@@": 8061,
    "Gegend": 8062,
    "bezahlen": 8063,
    "f-@@": 8064,
    "depending": 8065,
    "serviert": 8066,
    "fizierung": 8067,
    "Strukturfonds": 8068,
    "lift": 8069,
    "kurzen": 8070,
    "Buchung": 8071,
    "familiar": 8072,
    "nachhaltigen": 8073,
    "ami": 8074,
    "imm@@": 8075,
    "e-": 8076,
    "Ratspr\u00e4sidentschaft": 8077,
    "schl\u00e4gt": 8078,
    "performed": 8079,
    "Hinter@@": 8080,
    "nights": 8081,
    "gh": 8082,
    "Konflikt": 8083,
    "52": 8084,
    "Las": 8085,
    "effectiveness": 8086,
    "ministers": 8087,
    "cam@@": 8088,
    "\u00c4nderungsantr\u00e4gen": 8089,
    "olo@@": 8090,
    "schn@@": 8091,
    ".000": 8092,
    "printing": 8093,
    "cke": 8094,
    "license": 8095,
    "firstly": 8096,
    "Ausstellung": 8097,
    ".org": 8098,
    "appointed": 8099,
    "Element": 8100,
    "Cro@@": 8101,
    "explo@@": 8102,
    "SS@@": 8103,
    "mostly": 8104,
    "ans@@": 8105,
    "ques": 8106,
    "\u00dcbereinstimmung": 8107,
    "klaren": 8108,
    "ull": 8109,
    "Seg@@": 8110,
    "Wohl@@": 8111,
    "machte": 8112,
    "io": 8113,
    "starts": 8114,
    "annehmen": 8115,
    "Austausch": 8116,
    "gespeichert": 8117,
    "Programmen": 8118,
    "lik@@": 8119,
    "reiche": 8120,
    "u.a.": 8121,
    "Award": 8122,
    "Institution": 8123,
    "Wir@@": 8124,
    "ehrt": 8125,
    "customs": 8126,
    "aktiven": 8127,
    "Nein": 8128,
    "antes": 8129,
    "avec": 8130,
    "vorzu@@": 8131,
    "Vorschl\u00e4gen": 8132,
    "stehende": 8133,
    "cro@@": 8134,
    "sole": 8135,
    "beschr\u00e4nkt": 8136,
    "\u00e4nden": 8137,
    "Tisch": 8138,
    "Thomas": 8139,
    "ausgeschlossen": 8140,
    "formed": 8141,
    "demanding": 8142,
    "Nachrichten": 8143,
    "somewhat": 8144,
    "elli@@": 8145,
    "Test": 8146,
    "ref@@": 8147,
    "Wes@@": 8148,
    "Second": 8149,
    "Schwerpunkt": 8150,
    "musi@@": 8151,
    "electricity": 8152,
    "Messe": 8153,
    "View": 8154,
    "sup@@": 8155,
    "Analy@@": 8156,
    "Hostels": 8157,
    "isierung": 8158,
    "ops": 8159,
    "eignet": 8160,
    "Monetary": 8161,
    "uting": 8162,
    "\u0430": 8163,
    "Pr@@": 8164,
    "F\u00fc@@": 8165,
    "Wind@@": 8166,
    "answers": 8167,
    "bridge": 8168,
    "18.": 8169,
    "rock": 8170,
    "verbringen": 8171,
    "9-@@": 8172,
    "festival": 8173,
    "Umgang": 8174,
    "clubs": 8175,
    "minority": 8176,
    "interior": 8177,
    "Washington": 8178,
    "ores": 8179,
    "ees": 8180,
    "fr\u00fcheren": 8181,
    "Gesch\u00e4fte": 8182,
    "decision-making": 8183,
    "ultimately": 8184,
    "Wil@@": 8185,
    "universal": 8186,
    "notwendige": 8187,
    "ais": 8188,
    "noted": 8189,
    "interessante": 8190,
    "Sauna": 8191,
    "Lim@@": 8192,
    "begl\u00fcckw\u00fcnschen": 8193,
    "Stra\u00dfen": 8194,
    "durchf\u00fchren": 8195,
    "sprach": 8196,
    "z-@@": 8197,
    "Tom@@": 8198,
    "ord": 8199,
    "ked": 8200,
    "Real": 8201,
    "K\u00f6ni@@": 8202,
    "Ausf\u00fchrung": 8203,
    "module": 8204,
    "ED": 8205,
    "diger": 8206,
    "Gentoo": 8207,
    "esp@@": 8208,
    "satz@@": 8209,
    "emergency": 8210,
    "blood": 8211,
    "library": 8212,
    "aster": 8213,
    "Drittens": 8214,
    "Mod@@": 8215,
    "Zer@@": 8216,
    "schicken": 8217,
    "lie\u00df": 8218,
    "Sommer@@": 8219,
    "Euro-@@": 8220,
    "Wissenschaft": 8221,
    "submit": 8222,
    "vo": 8223,
    "Schlafzimmer": 8224,
    "techniques": 8225,
    "ency": 8226,
    "ased": 8227,
    "Hall": 8228,
    "Dek@@": 8229,
    "Kilometer": 8230,
    "eingesch@@": 8231,
    "moral": 8232,
    "meant": 8233,
    "Brazil": 8234,
    "erreichbar": 8235,
    "altung": 8236,
    "fran@@": 8237,
    "wasser": 8238,
    "Mensch": 8239,
    "Whether": 8240,
    "personnel": 8241,
    "verabschiedet": 8242,
    "SMEs": 8243,
    "Industrie@@": 8244,
    "ult@@": 8245,
    "sodass": 8246,
    "UN-@@": 8247,
    "rising": 8248,
    "drivers": 8249,
    "zulassen": 8250,
    "Ma\u00df": 8251,
    "Arab@@": 8252,
    "Framework": 8253,
    "poli@@": 8254,
    "Arbeitspl\u00e4tzen": 8255,
    "provider": 8256,
    "theit": 8257,
    "inflation": 8258,
    "lounge": 8259,
    "zugunsten": 8260,
    "Tour@@": 8261,
    "parliaments": 8262,
    "hervorheben": 8263,
    "\u00dcbersetzung": 8264,
    "stars": 8265,
    "Drittl\u00e4ndern": 8266,
    "geri@@": 8267,
    "51": 8268,
    "ute": 8269,
    "nissen": 8270,
    "Deutschen": 8271,
    "f\u00fcllen": 8272,
    "Dru@@": 8273,
    "Identi@@": 8274,
    "spartner": 8275,
    "w\u00e4r@@": 8276,
    "ining": 8277,
    "oms": 8278,
    "welfare": 8279,
    "F\u00fchr@@": 8280,
    "metal": 8281,
    "dam@@": 8282,
    "fern@@": 8283,
    "einzigartige": 8284,
    "best\u00e4tigen": 8285,
    "islands": 8286,
    "materi@@": 8287,
    "zust\u00e4ndigen": 8288,
    "eil": 8289,
    "mass@@": 8290,
    "Pet@@": 8291,
    "ka@@": 8292,
    "bus@@": 8293,
    "Mexico": 8294,
    "hostel": 8295,
    "custom@@": 8296,
    "angemessene": 8297,
    "accompanied": 8298,
    "reported": 8299,
    "verhindert": 8300,
    "gehende": 8301,
    "wert@@": 8302,
    "ausgesprochen": 8303,
    "l\u00f6@@": 8304,
    "statistics": 8305,
    "ausgesetzt": 8306,
    "aller@@": 8307,
    "chemical": 8308,
    "prefer": 8309,
    "ouse": 8310,
    "career": 8311,
    "Luft": 8312,
    "\u0437@@": 8313,
    "northern": 8314,
    "eres": 8315,
    "teams": 8316,
    "Dat@@": 8317,
    "grateful": 8318,
    "breiten": 8319,
    "Den@@": 8320,
    "Gleichgewicht": 8321,
    "Prinzipien": 8322,
    "follows": 8323,
    "Komponenten": 8324,
    "Sha@@": 8325,
    "well@@": 8326,
    "Cyprus": 8327,
    "Planung": 8328,
    "zunehmen": 8329,
    "contrast": 8330,
    "looked": 8331,
    "facts": 8332,
    "vorher": 8333,
    "russischen": 8334,
    "tho@@": 8335,
    "steuer@@": 8336,
    "Ide@@": 8337,
    "visited": 8338,
    "Radio": 8339,
    "orial": 8340,
    "Besonders": 8341,
    "Faktoren": 8342,
    "Les@@": 8343,
    "gepr\u00fcft": 8344,
    "st-@@": 8345,
    "Es@@": 8346,
    "subsidies": 8347,
    "lex@@": 8348,
    "schwer@@": 8349,
    "bound": 8350,
    "Verringerung": 8351,
    "windows": 8352,
    "Yes": 8353,
    "Werbung": 8354,
    "Prin@@": 8355,
    "gearbeitet": 8356,
    "Alles": 8357,
    "relaxation": 8358,
    "AK@@": 8359,
    "valley": 8360,
    "passiert": 8361,
    "aci\u00f3n": 8362,
    "delighted": 8363,
    "lay": 8364,
    "stance": 8365,
    "Beziehung": 8366,
    "Rund@@": 8367,
    "farm": 8368,
    "invite": 8369,
    "wines": 8370,
    "massage": 8371,
    "wann": 8372,
    "Vereinbarungen": 8373,
    "studio": 8374,
    "aufnehmen": 8375,
    "indicated": 8376,
    "woman": 8377,
    "contacts": 8378,
    "Beitr\u00e4ge": 8379,
    "deckt": 8380,
    "corner": 8381,
    "eastern": 8382,
    "Gerichte": 8383,
    "pm": 8384,
    "mus": 8385,
    "messen": 8386,
    "bom@@": 8387,
    "Transport@@": 8388,
    "Church": 8389,
    "unm\u00f6glich": 8390,
    "Au\u00dfenpolitik": 8391,
    "percent": 8392,
    "offen@@": 8393,
    "entwurf": 8394,
    "Optionen": 8395,
    "AU@@": 8396,
    "Wein": 8397,
    "Sonne": 8398,
    "komp@@": 8399,
    "channels": 8400,
    "cle": 8401,
    "terrorist": 8402,
    "fehlt": 8403,
    "programm@@": 8404,
    "Gemein@@": 8405,
    "definiert": 8406,
    "Schluss": 8407,
    "Plenum": 8408,
    "Gesellschaften": 8409,
    "arrive": 8410,
    "Golf@@": 8411,
    "einrichtungen": 8412,
    "MySQL": 8413,
    "flights": 8414,
    "lec@@": 8415,
    "verringern": 8416,
    "sucht": 8417,
    "gold": 8418,
    "newly": 8419,
    "Handeln": 8420,
    "72": 8421,
    "stro@@": 8422,
    "Saint": 8423,
    "\u00ee@@": 8424,
    "corruption": 8425,
    "Copenhagen": 8426,
    "functioning": 8427,
    "nahmen": 8428,
    "atik": 8429,
    "h\u00f6heren": 8430,
    "tourists": 8431,
    "recommendation": 8432,
    "Vel@@": 8433,
    "Einstellungen": 8434,
    "entsteht": 8435,
    "signs": 8436,
    "Chinas": 8437,
    "Pin@@": 8438,
    "visiting": 8439,
    "presents": 8440,
    "exciting": 8441,
    "stored": 8442,
    "Rek@@": 8443,
    "Jede": 8444,
    "burger": 8445,
    "Festlegung": 8446,
    "visa": 8447,
    "judicial": 8448,
    "Firmen@@": 8449,
    "lists": 8450,
    "actively": 8451,
    "Zusatz@@": 8452,
    "scheinen": 8453,
    "LE": 8454,
    "vacation": 8455,
    "feed": 8456,
    "widely": 8457,
    "Roll@@": 8458,
    "Budapest": 8459,
    "match": 8460,
    "&apos;ve": 8461,
    "Plattform": 8462,
    "Congress": 8463,
    "\u00e4t@@": 8464,
    "Verb@@": 8465,
    "welchem": 8466,
    "entrance": 8467,
    "Gespr\u00e4che": 8468,
    "cosy": 8469,
    "declared": 8470,
    "dent": 8471,
    "Drogen@@": 8472,
    "Band": 8473,
    "Report": 8474,
    "firms": 8475,
    "ulate": 8476,
    "verleihen": 8477,
    "ga@@": 8478,
    "desk": 8479,
    "direkten": 8480,
    "careful": 8481,
    "d.h.": 8482,
    "imposed": 8483,
    "bilateral": 8484,
    "\u00fct@@": 8485,
    "Morgen": 8486,
    "W\u00fcnsche": 8487,
    "pollution": 8488,
    "showing": 8489,
    "ammer": 8490,
    "Edition": 8491,
    "ordin@@": 8492,
    "Drei@@": 8493,
    "einhei@@": 8494,
    "Individu@@": 8495,
    "schlecht": 8496,
    "cross": 8497,
    "TO@@": 8498,
    "lte": 8499,
    "Sek@@": 8500,
    "86": 8501,
    "bre": 8502,
    "Sy@@": 8503,
    "satisfied": 8504,
    "explore": 8505,
    "iler": 8506,
    "Sat@@": 8507,
    "Friday": 8508,
    "inhabitants": 8509,
    "ney": 8510,
    "afternoon": 8511,
    "Bemerkungen": 8512,
    "decken": 8513,
    "lauf": 8514,
    "Cur@@": 8515,
    "\u0440@@": 8516,
    "gardens": 8517,
    "ungef\u00e4hr": 8518,
    "otel": 8519,
    "M\u00fcn@@": 8520,
    "involves": 8521,
    "Garantie": 8522,
    "Sitz@@": 8523,
    "onal": 8524,
    "Neue": 8525,
    "ver\u00e4ndern": 8526,
    "Prague": 8527,
    "Act": 8528,
    "ly@@": 8529,
    "configuration": 8530,
    "Ausgabe": 8531,
    "gestaltet": 8532,
    "2.0": 8533,
    "Gleich@@": 8534,
    "demonstrated": 8535,
    "p-@@": 8536,
    "expert": 8537,
    "speaker": 8538,
    "W\u00e4hrungs@@": 8539,
    "EG@@": 8540,
    "Brand@@": 8541,
    "rechtliche": 8542,
    "vertre@@": 8543,
    "Ster@@": 8544,
    "winning": 8545,
    "geboren": 8546,
    "Trek": 8547,
    "Ed@@": 8548,
    "Noch": 8549,
    "dom@@": 8550,
    "Fac@@": 8551,
    "Earth": 8552,
    "Adobe": 8553,
    "formal": 8554,
    "kamen": 8555,
    "Regierungskonferenz": 8556,
    "PO@@": 8557,
    "Aktion": 8558,
    "cast": 8559,
    "echn@@": 8560,
    "News": 8561,
    "wollten": 8562,
    "occur": 8563,
    "erleichtern": 8564,
    "1st": 8565,
    "Perhaps": 8566,
    "lige": 8567,
    "heritage": 8568,
    "Sony": 8569,
    "ausgef\u00fchrt": 8570,
    "Rou@@": 8571,
    "dich": 8572,
    "declaration": 8573,
    "bert": 8574,
    "assets": 8575,
    "maintaining": 8576,
    "nahezu": 8577,
    "fl\u00e4che": 8578,
    "Protection": 8579,
    "expansion": 8580,
    "gebiete": 8581,
    "sorgf\u00e4ltig": 8582,
    "Minderheiten": 8583,
    "competent": 8584,
    "sam": 8585,
    "intellectual": 8586,
    "Zentralbank": 8587,
    "Verteidigung": 8588,
    "druck": 8589,
    "Deswegen": 8590,
    "Haftung": 8591,
    "kun@@": 8592,
    "Funds": 8593,
    "soli@@": 8594,
    "fashion": 8595,
    "seri@@": 8596,
    "Ziffer": 8597,
    "transition": 8598,
    "collaboration": 8599,
    "earth": 8600,
    "reject": 8601,
    "begr\u00fc\u00dft": 8602,
    "Ah@@": 8603,
    "dol@@": 8604,
    "ann": 8605,
    "Given": 8606,
    "St\u00fcck": 8607,
    "ongoing": 8608,
    "lebt": 8609,
    "plenty": 8610,
    "motor": 8611,
    "Soviet": 8612,
    "Justiz": 8613,
    "ond": 8614,
    "lob@@": 8615,
    "oriented": 8616,
    "neg@@": 8617,
    "ppen": 8618,
    "conditioning": 8619,
    "Kurz@@": 8620,
    "ym@@": 8621,
    "Baltic": 8622,
    "remote": 8623,
    "hinzuf\u00fcgen": 8624,
    "quarter": 8625,
    "functional": 8626,
    "Wol@@": 8627,
    "sprachen": 8628,
    "demonstrate": 8629,
    "Je": 8630,
    "tea": 8631,
    "unde": 8632,
    "settlement": 8633,
    "ancy": 8634,
    "resistance": 8635,
    "Kir@@": 8636,
    "Blo@@": 8637,
    "ros": 8638,
    "ile": 8639,
    "Verbot": 8640,
    "high-quality": 8641,
    "erh@@": 8642,
    "Gr\u00fcndung": 8643,
    "Ver\u00f6ffentlichung": 8644,
    "fris@@": 8645,
    "still@@": 8646,
    "Sorgen": 8647,
    "May@@": 8648,
    "entes": 8649,
    "selbst@@": 8650,
    "hot@@": 8651,
    "L\u00f6@@": 8652,
    "techn@@": 8653,
    "strict": 8654,
    "Sicher@@": 8655,
    "Cl@@": 8656,
    "theme": 8657,
    "pr\u00e4sentieren": 8658,
    "3,@@": 8659,
    "12.@@": 8660,
    "solange": 8661,
    "Arab": 8662,
    "\u00fcberzeugen": 8663,
    "\u0447@@": 8664,
    "sight": 8665,
    "pot@@": 8666,
    "\u00e8re": 8667,
    "struktur@@": 8668,
    "Port": 8669,
    "billi@@": 8670,
    "channel": 8671,
    "bem\u00fchen": 8672,
    "Schn@@": 8673,
    "letztlich": 8674,
    "bestimmen": 8675,
    "EM": 8676,
    "mess@@": 8677,
    "fitness": 8678,
    "categories": 8679,
    "spoken": 8680,
    "rapidly": 8681,
    "isation": 8682,
    "erer": 8683,
    "holen": 8684,
    "ador": 8685,
    "Sit@@": 8686,
    "trafficking": 8687,
    "bestehende": 8688,
    "facility": 8689,
    "f\u00f6rdert": 8690,
    "Datenschutz@@": 8691,
    "usual": 8692,
    "amp": 8693,
    "appearance": 8694,
    "Sollten": 8695,
    "Tim@@": 8696,
    "We@@": 8697,
    "documentation": 8698,
    "ession": 8699,
    "erien": 8700,
    "Rom": 8701,
    "perfekt": 8702,
    "\u00e8": 8703,
    "stylish": 8704,
    "poll@@": 8705,
    "cket": 8706,
    "\u044f": 8707,
    "Marktes": 8708,
    "heutige": 8709,
    "BIP": 8710,
    "ils": 8711,
    "committees": 8712,
    "Einbeziehung": 8713,
    "Produk@@": 8714,
    "Studenten": 8715,
    "bank@@": 8716,
    "Chancen": 8717,
    "Question": 8718,
    "Or": 8719,
    "department": 8720,
    "Rest": 8721,
    "generated": 8722,
    "gas@@": 8723,
    "ze@@": 8724,
    "passenger": 8725,
    "ausschu\u00df": 8726,
    "organisationen": 8727,
    "gezwungen": 8728,
    "PP@@": 8729,
    "recorded": 8730,
    "Parlament@@": 8731,
    "Charta": 8732,
    "raw": 8733,
    "Portuguese": 8734,
    "regarded": 8735,
    "Mobile": 8736,
    "Kontakt@@": 8737,
    "educational": 8738,
    "15.": 8739,
    "erneu@@": 8740,
    "artist": 8741,
    "films": 8742,
    "concluded": 8743,
    "S\u00fc@@": 8744,
    "possibly": 8745,
    "verehrte": 8746,
    "alo@@": 8747,
    "Umfeld": 8748,
    "wachsen": 8749,
    "Skype": 8750,
    "geltenden": 8751,
    "Insbesondere": 8752,
    "tau@@": 8753,
    "Zwischen@@": 8754,
    "justified": 8755,
    "gewis@@": 8756,
    "KMU": 8757,
    "sharing": 8758,
    "ario": 8759,
    "Sollte": 8760,
    "Licht@@": 8761,
    "gesp@@": 8762,
    "Description": 8763,
    "spra@@": 8764,
    "owned": 8765,
    "dlichen": 8766,
    "Hostel": 8767,
    "Marketing": 8768,
    "werten": 8769,
    "with@@": 8770,
    "fr\u00fch@@": 8771,
    "grant": 8772,
    "awarded": 8773,
    "lig": 8774,
    "erial": 8775,
    "Applause": 8776,
    "exit": 8777,
    "Tab@@": 8778,
    "cutting": 8779,
    "containing": 8780,
    "argument": 8781,
    "lasting": 8782,
    "ange": 8783,
    "bottom": 8784,
    "Bewer@@": 8785,
    "resi@@": 8786,
    "Mobilit\u00e4t": 8787,
    "boot": 8788,
    "abel": 8789,
    "\u017e@@": 8790,
    "long-@@": 8791,
    "James": 8792,
    "g-@@": 8793,
    "egen@@": 8794,
    "replaced": 8795,
    "apart": 8796,
    "erinnert": 8797,
    "gelassen": 8798,
    "mix": 8799,
    "ierenden": 8800,
    "foundation": 8801,
    "hair": 8802,
    "l\u00f6sung": 8803,
    "schauen": 8804,
    "\u043e": 8805,
    "54": 8806,
    "vorlegen": 8807,
    "Balkon": 8808,
    "zieh@@": 8809,
    "rt": 8810,
    "dependent": 8811,
    "phrase": 8812,
    "Preisen": 8813,
    "britische": 8814,
    "ferner": 8815,
    "gesch\u00e4f@@": 8816,
    "oul@@": 8817,
    "nten": 8818,
    "ska": 8819,
    "beraten": 8820,
    "teten": 8821,
    "enswert": 8822,
    "\u00fcb@@": 8823,
    "d\u00fcrfte": 8824,
    "dan": 8825,
    "Webseiten": 8826,
    "emerging": 8827,
    "factory": 8828,
    "individuelle": 8829,
    "Zielen": 8830,
    "Speicher@@": 8831,
    "lokale": 8832,
    "tigte": 8833,
    "betra@@": 8834,
    "planet": 8835,
    "Vit@@": 8836,
    "anges@@": 8837,
    "desired": 8838,
    "eria": 8839,
    "bereitet": 8840,
    "verti@@": 8841,
    "towns": 8842,
    "gallery": 8843,
    "ups": 8844,
    "Objek@@": 8845,
    "mother": 8846,
    "Eurozone": 8847,
    "Plus": 8848,
    "Identit\u00e4t": 8849,
    "staat": 8850,
    "IV": 8851,
    "installieren": 8852,
    "ski@@": 8853,
    "kli@@": 8854,
    "karten": 8855,
    "Untersuchungen": 8856,
    "\u00e5@@": 8857,
    "Mach@@": 8858,
    "motor@@": 8859,
    "Vorgehen": 8860,
    "respected": 8861,
    "jegliche": 8862,
    "mem@@": 8863,
    "assume": 8864,
    "overcome": 8865,
    "count": 8866,
    "copyright": 8867,
    "termin@@": 8868,
    "Versionen": 8869,
    "Hungary": 8870,
    "saving": 8871,
    "Fein@@": 8872,
    "CE@@": 8873,
    "gg@@": 8874,
    "van@@": 8875,
    "alog@@": 8876,
    "Freiheiten": 8877,
    "Town": 8878,
    "liefert": 8879,
    "abgestimmt": 8880,
    "minorities": 8881,
    "routes": 8882,
    "tackle": 8883,
    "reform@@": 8884,
    "credibility": 8885,
    "Pe@@": 8886,
    "TO": 8887,
    "spectacular": 8888,
    "verkaufen": 8889,
    "Selbstverst\u00e4ndlich": 8890,
    "verdient": 8891,
    "eing": 8892,
    "Massen@@": 8893,
    "Northern": 8894,
    "Power": 8895,
    "Vorschlags": 8896,
    "Puerto": 8897,
    "gens": 8898,
    "cally": 8899,
    "wohnen": 8900,
    "partly": 8901,
    "ret@@": 8902,
    "verst\u00e4nd@@": 8903,
    "getreten": 8904,
    "erfolgreiche": 8905,
    "Training": 8906,
    "professionals": 8907,
    "Fru@@": 8908,
    "brau@@": 8909,
    "tigungen": 8910,
    "Update": 8911,
    "determination": 8912,
    "heat": 8913,
    "Computer@@": 8914,
    "MB": 8915,
    "and-@@": 8916,
    "crimes": 8917,
    "ump@@": 8918,
    "organisieren": 8919,
    "satisfaction": 8920,
    "setz@@": 8921,
    "stronger": 8922,
    "einig": 8923,
    "\u00fcbrigens": 8924,
    "flat": 8925,
    "Belgium": 8926,
    "temp@@": 8927,
    "lieb@@": 8928,
    "Newsletter": 8929,
    "acted": 8930,
    "ersetzt": 8931,
    "Women": 8932,
    "Fischer": 8933,
    "entscheidende": 8934,
    "prozesses": 8935,
    "puts": 8936,
    "bemerk@@": 8937,
    "Signal": 8938,
    "Kr\u00e4fte": 8939,
    "Glas@@": 8940,
    "Werke": 8941,
    "Bars": 8942,
    "Ag@@": 8943,
    "betrieben": 8944,
    "direkte": 8945,
    "gr\u00f6\u00dfer": 8946,
    "amt": 8947,
    "individuellen": 8948,
    "ico": 8949,
    "radi@@": 8950,
    "Konsens": 8951,
    "Gerichtshof": 8952,
    "entr@@": 8953,
    "weite": 8954,
    "transactions": 8955,
    "occasions": 8956,
    "programms": 8957,
    "verurteilt": 8958,
    "Arbeitsmarkt": 8959,
    "verkauft": 8960,
    "ail": 8961,
    "vorhandenen": 8962,
    "aux": 8963,
    "geln": 8964,
    "serving": 8965,
    "scheme": 8966,
    "Politiken": 8967,
    "Sozi@@": 8968,
    "entwickelte": 8969,
    "marquis": 8970,
    "Mitarbeitern": 8971,
    "Asien": 8972,
    "linien": 8973,
    "zentral": 8974,
    "Verbreitung": 8975,
    "respon@@": 8976,
    "play@@": 8977,
    "immigrants": 8978,
    "cot@@": 8979,
    "enes": 8980,
    "Studien": 8981,
    "beziehungen": 8982,
    "ierende": 8983,
    "einheitlichen": 8984,
    "manufacturer": 8985,
    "Network": 8986,
    "stellungs@@": 8987,
    "Oder": 8988,
    "beruht": 8989,
    "reduzieren": 8990,
    "correctly": 8991,
    "basi@@": 8992,
    "pas@@": 8993,
    "Klasse": 8994,
    "ed-@@": 8995,
    "replace": 8996,
    "gew\u00e4hrt": 8997,
    "Pact": 8998,
    "ham": 8999,
    "Within": 9000,
    "6.": 9001,
    "Amendments": 9002,
    "glaub@@": 9003,
    "enjoyed": 9004,
    "Eli@@": 9005,
    "Show": 9006,
    "erhebliche": 9007,
    "\u00e4u\u00dfern": 9008,
    "Zwecke": 9009,
    "begrenzt": 9010,
    "cash": 9011,
    "weekend": 9012,
    "vorstellen": 9013,
    "Video@@": 9014,
    "Anschluss": 9015,
    "arrived": 9016,
    "bekannte": 9017,
    "EX@@": 9018,
    "Well": 9019,
    "strategischen": 9020,
    "ager": 9021,
    "m\u00f6@@": 9022,
    "Besorgnis": 9023,
    "dence": 9024,
    "Desk": 9025,
    "Krankheit": 9026,
    "conf@@": 9027,
    "grunds\u00e4tzlich": 9028,
    "G-@@": 9029,
    "CE": 9030,
    "Nachricht": 9031,
    "Stre@@": 9032,
    "Kli@@": 9033,
    "non": 9034,
    "gehenden": 9035,
    "genannte": 9036,
    "Nah@@": 9037,
    "Wi-Fi": 9038,
    "IT-@@": 9039,
    "inklusive": 9040,
    "Space": 9041,
    "leu@@": 9042,
    "bek\u00e4mpfung": 9043,
    "Denk@@": 9044,
    "Israeli": 9045,
    "tos": 9046,
    "slightly": 9047,
    "kg": 9048,
    "hil@@": 9049,
    "\u00e9es": 9050,
    "lex": 9051,
    "Food": 9052,
    "miles": 9053,
    "Canon": 9054,
    "corresponding": 9055,
    "inger": 9056,
    "adults": 9057,
    "hren": 9058,
    "rental": 9059,
    "fans": 9060,
    "St\u00e4dten": 9061,
    "wes@@": 9062,
    "sending": 9063,
    "Vorstellung": 9064,
    "Don": 9065,
    "it\u00e4ten": 9066,
    "nieder@@": 9067,
    "Following": 9068,
    "legitimate": 9069,
    "Einwanderung": 9070,
    "bi": 9071,
    "drinks": 9072,
    "EP@@": 9073,
    "Rezeption": 9074,
    "constitutional": 9075,
    "dru@@": 9076,
    "\u0433@@": 9077,
    "Alt@@": 9078,
    "Page": 9079,
    "nit@@": 9080,
    "sicheren": 9081,
    "Person@@": 9082,
    "stimm@@": 9083,
    "Gewicht": 9084,
    "Hot@@": 9085,
    "Gold@@": 9086,
    "Sein": 9087,
    "lers": 9088,
    "esti@@": 9089,
    "glob@@": 9090,
    "Schiff@@": 9091,
    "-based": 9092,
    "Straf@@": 9093,
    "Kapitel": 9094,
    "\u00e2@@": 9095,
    "industri@@": 9096,
    "k\u00fcr@@": 9097,
    "adv@@": 9098,
    "solid": 9099,
    "raten": 9100,
    "direc@@": 9101,
    "Freunden": 9102,
    "component": 9103,
    "besch\u00e4ftigen": 9104,
    "informationen": 9105,
    "sprach@@": 9106,
    "einfacher": 9107,
    "Hohen": 9108,
    "ming": 9109,
    "ruhig": 9110,
    "losses": 9111,
    "gen\u00fcgend": 9112,
    "youth": 9113,
    "nunmehr": 9114,
    "shares": 9115,
    "distributed": 9116,
    "\u00b7": 9117,
    "Extre@@": 9118,
    "Bedrohung": 9119,
    "Champ@@": 9120,
    "echt": 9121,
    "Coll@@": 9122,
    "Pla@@": 9123,
    "Taiwan": 9124,
    "suppliers": 9125,
    "J": 9126,
    "arischen": 9127,
    "enter@@": 9128,
    "providers": 9129,
    "subsidiarity": 9130,
    "banking": 9131,
    "bereit@@": 9132,
    "verkehrs@@": 9133,
    "Schulen": 9134,
    "offiziellen": 9135,
    "angegebenen": 9136,
    "versorgung": 9137,
    "annte": 9138,
    "Videos": 9139,
    "Ol@@": 9140,
    "mul@@": 9141,
    "sensible": 9142,
    "cuts": 9143,
    "destruction": 9144,
    "kn@@": 9145,
    "OF": 9146,
    "ologischen": 9147,
    "egal": 9148,
    "igung": 9149,
    "identified": 9150,
    "magnificent": 9151,
    "niveau": 9152,
    "Text@@": 9153,
    "Bemerkung": 9154,
    "Zone": 9155,
    "jenen": 9156,
    "division": 9157,
    "dest@@": 9158,
    "dr\u00fccken": 9159,
    "l\u00e4\u00dft": 9160,
    "constitution": 9161,
    "rig@@": 9162,
    "wrote": 9163,
    "Dach@@": 9164,
    "Hier@@": 9165,
    "EB@@": 9166,
    "vi": 9167,
    "194@@": 9168,
    "effektiv": 9169,
    "fantas@@": 9170,
    "cian": 9171,
    "Pack@@": 9172,
    "updates": 9173,
    "Kurs": 9174,
    "wear": 9175,
    "ierter": 9176,
    "ums@@": 9177,
    "Asyl@@": 9178,
    "kultur@@": 9179,
    "Malta": 9180,
    "eds": 9181,
    "taxation": 9182,
    "Erzeugnisse": 9183,
    "amed": 9184,
    "Systemen": 9185,
    "7.": 9186,
    "Reser@@": 9187,
    "ahn@@": 9188,
    "Dan@@": 9189,
    "Without": 9190,
    "Atlantic": 9191,
    "addresses": 9192,
    "zusammenarbeiten": 9193,
    "maritime": 9194,
    "elsewhere": 9195,
    "Selbst": 9196,
    "aussprechen": 9197,
    "Def@@": 9198,
    "behaviour": 9199,
    "interpretation": 9200,
    "werken": 9201,
    "h\u00e4ngen": 9202,
    "cial": 9203,
    "ose": 9204,
    "considering": 9205,
    "cab@@": 9206,
    "Zug@@": 9207,
    "kompet@@": 9208,
    "iges": 9209,
    "et-@@": 9210,
    "Juli@@": 9211,
    "globalisation": 9212,
    "liberal": 9213,
    "Sec@@": 9214,
    "eventually": 9215,
    "Auge": 9216,
    "eau": 9217,
    "vorbereitet": 9218,
    "Wohnung": 9219,
    "New@@": 9220,
    "Miss@@": 9221,
    "NI": 9222,
    "ault": 9223,
    "au\u00dferordentlich": 9224,
    "Europol": 9225,
    "peti@@": 9226,
    "exception": 9227,
    "franz\u00f6sische": 9228,
    "AN": 9229,
    "derer": 9230,
    "wege": 9231,
    "W\u00fcr@@": 9232,
    "stag@@": 9233,
    "verst\u00e4rken": 9234,
    "leistung": 9235,
    "anne": 9236,
    "VAT": 9237,
    "Acc@@": 9238,
    "ensures": 9239,
    "it\u00e4@@": 9240,
    "Benutzer@@": 9241,
    "secret": 9242,
    "Marke": 9243,
    "gangs": 9244,
    "acqu@@": 9245,
    "Zus\u00e4tzlich": 9246,
    "gewonnen": 9247,
    "electric": 9248,
    "milk": 9249,
    "herrscht": 9250,
    "Cha@@": 9251,
    "erfolgreichen": 9252,
    "AD": 9253,
    "vorschriften": 9254,
    "exports": 9255,
    "Termin@@": 9256,
    "Haup@@": 9257,
    "verbinden": 9258,
    "bli@@": 9259,
    "f\u00fchrten": 9260,
    "oring": 9261,
    "71": 9262,
    "Beitritts@@": 9263,
    "Schwei@@": 9264,
    "spann@@": 9265,
    "ital": 9266,
    "Wachstums@@": 9267,
    "Schlaf@@": 9268,
    "battle": 9269,
    "arti@@": 9270,
    "gebieten": 9271,
    "domain": 9272,
    "hear@@": 9273,
    "sil@@": 9274,
    "68": 9275,
    "m\u00e4ch@@": 9276,
    "Gran": 9277,
    "straight": 9278,
    "Structural": 9279,
    "Hungarian": 9280,
    "Kontrollen": 9281,
    "ema": 9282,
    "preparing": 9283,
    "traditionelle": 9284,
    "SV": 9285,
    "gestattet": 9286,
    "extraordinary": 9287,
    "encouraging": 9288,
    "Sunday": 9289,
    "Nacht@@": 9290,
    "ug@@": 9291,
    "jener": 9292,
    "Viertel": 9293,
    "eleg@@": 9294,
    "antly": 9295,
    "leb@@": 9296,
    "pack@@": 9297,
    "eat": 9298,
    "unverz\u00fcglich": 9299,
    "Kauf": 9300,
    "erhielt": 9301,
    "denden": 9302,
    "Mission": 9303,
    "App@@": 9304,
    "Valley": 9305,
    "h\u00f6@@": 9306,
    "erlebt": 9307,
    "smo@@": 9308,
    "bot@@": 9309,
    "decisive": 9310,
    "ungser@@": 9311,
    "schm@@": 9312,
    "Blog": 9313,
    "53": 9314,
    "proposes": 9315,
    "Thirdly": 9316,
    "Fas@@": 9317,
    "17.": 9318,
    "eingereicht": 9319,
    "Wirk@@": 9320,
    "Eisenbahn@@": 9321,
    "Bef@@": 9322,
    "por": 9323,
    "courts": 9324,
    "wiederholen": 9325,
    "vin@@": 9326,
    "verantwortungs@@": 9327,
    "56": 9328,
    "Wohlstand": 9329,
    "Sektoren": 9330,
    "liked": 9331,
    "aqu@@": 9332,
    "Balkans": 9333,
    "ungsverfahren": 9334,
    "lock": 9335,
    "mag@@": 9336,
    "Islam": 9337,
    "ons@@": 9338,
    "scene": 9339,
    "vulnerable": 9340,
    "deficit": 9341,
    "Charles": 9342,
    "pel@@": 9343,
    "wissenschaftliche": 9344,
    "generate": 9345,
    "auen": 9346,
    "Internet-@@": 9347,
    "Salzburg": 9348,
    "disk": 9349,
    "ishing": 9350,
    "filled": 9351,
    "oper@@": 9352,
    "Bereitstellung": 9353,
    "citizen": 9354,
    "army": 9355,
    "advis@@": 9356,
    "bem@@": 9357,
    "Year": 9358,
    "Einkommen": 9359,
    "mas@@": 9360,
    "didn": 9361,
    "66": 9362,
    "everyday": 9363,
    "Erstellung": 9364,
    "label": 9365,
    "Vorsitz": 9366,
    "swi@@": 9367,
    "Like": 9368,
    "enhance": 9369,
    "vieles": 9370,
    "gefallen": 9371,
    "ont@@": 9372,
    "entscheidender": 9373,
    "pay@@": 9374,
    "wn": 9375,
    "wat@@": 9376,
    "beigetragen": 9377,
    "low@@": 9378,
    "filter": 9379,
    "beschrieben": 9380,
    "Beschluss": 9381,
    "Lieferung": 9382,
    "surely": 9383,
    "topics": 9384,
    "ye@@": 9385,
    "Schwar@@": 9386,
    "ham@@": 9387,
    "irgend@@": 9388,
    "plenary": 9389,
    "slow": 9390,
    "complicated": 9391,
    "substance": 9392,
    "impor@@": 9393,
    "gro\u00dfem": 9394,
    "packaging": 9395,
    "ento": 9396,
    "illustr@@": 9397,
    "egel": 9398,
    "luxurious": 9399,
    "tlicher": 9400,
    "portal": 9401,
    "university": 9402,
    "par": 9403,
    "anim@@": 9404,
    "Lok@@": 9405,
    "centr@@": 9406,
    "sugar": 9407,
    "Pakete": 9408,
    "Touristen": 9409,
    "supplies": 9410,
    "Ehr@@": 9411,
    "UC@@": 9412,
    "bonus": 9413,
    "Einheit": 9414,
    "spoke": 9415,
    "finanziert": 9416,
    "\u00e4hnlich": 9417,
    "Spa\u00df": 9418,
    "accurate": 9419,
    "index": 9420,
    "gerichtet": 9421,
    "lessons": 9422,
    "spo@@": 9423,
    "invest": 9424,
    "WLAN": 9425,
    "spe@@": 9426,
    "Client": 9427,
    "virtual": 9428,
    "inclusion": 9429,
    "a.@@": 9430,
    "st\u00e4n@@": 9431,
    "sh": 9432,
    "kleines": 9433,
    "Nos": 9434,
    "\u00a7": 9435,
    "Ungarn": 9436,
    "gewi@@": 9437,
    "20-@@": 9438,
    "examine": 9439,
    "Theater": 9440,
    "directed": 9441,
    "Exchange": 9442,
    "M\u00e4nnern": 9443,
    "bislang": 9444,
    "Assembly": 9445,
    "but@@": 9446,
    "8.": 9447,
    "connect": 9448,
    "proven": 9449,
    "wundersch\u00f6nen": 9450,
    "Katastrophe": 9451,
    "Schlussfolgerungen": 9452,
    "Os@@": 9453,
    "Salz@@": 9454,
    "Verk@@": 9455,
    "Blan@@": 9456,
    "arise": 9457,
    "Fu\u00df@@": 9458,
    "selben": 9459,
    "zeichnen": 9460,
    "Main": 9461,
    "specified": 9462,
    "elektronischen": 9463,
    "bestimmter": 9464,
    "patent": 9465,
    "j\u00e4hrige": 9466,
    "excessive": 9467,
    "Thursday": 9468,
    "Garden": 9469,
    "CON@@": 9470,
    "therapy": 9471,
    "gesellschaften": 9472,
    "selling": 9473,
    "Vene@@": 9474,
    "Mangel": 9475,
    "Entscheidungs@@": 9476,
    "Son@@": 9477,
    "beteiligen": 9478,
    "voc@@": 9479,
    "enabled": 9480,
    "videos": 9481,
    "theory": 9482,
    "Ansichten": 9483,
    "herr@@": 9484,
    "Staates": 9485,
    "aufs": 9486,
    "suffer": 9487,
    "leistungen": 9488,
    "integriert": 9489,
    "ero": 9490,
    "Fal@@": 9491,
    "vermitteln": 9492,
    "ENT@@": 9493,
    "ling@@": 9494,
    "Cer@@": 9495,
    "impose": 9496,
    "tem@@": 9497,
    "Live": 9498,
    "concepts": 9499,
    "intern@@": 9500,
    "16.": 9501,
    "Kyoto": 9502,
    "renowned": 9503,
    "alit\u00e4ten": 9504,
    "erzeugt": 9505,
    "graph@@": 9506,
    "Mail@@": 9507,
    "zahl": 9508,
    "bung": 9509,
    "Get@@": 9510,
    "absence": 9511,
    "deposit": 9512,
    "zustellen": 9513,
    "stolz": 9514,
    "rem@@": 9515,
    "einzigartigen": 9516,
    "ride": 9517,
    "forests": 9518,
    "Brasilien": 9519,
    "wohl@@": 9520,
    "Genehmigung": 9521,
    "Roh@@": 9522,
    "shipping": 9523,
    "adopting": 9524,
    "sozi@@": 9525,
    "description": 9526,
    "Bio@@": 9527,
    "prim@@": 9528,
    "bility": 9529,
    "diplom@@": 9530,
    "Sicherung": 9531,
    "stic": 9532,
    "Einwohner": 9533,
    "chem@@": 9534,
    "hundred": 9535,
    "dende": 9536,
    "Kontext": 9537,
    "Bin@@": 9538,
    "greatly": 9539,
    "Medien@@": 9540,
    "sinn@@": 9541,
    "Digital": 9542,
    "Zw@@": 9543,
    "geboten": 9544,
    "pped": 9545,
    "Polizei": 9546,
    "savings": 9547,
    "A.": 9548,
    "Mitt@@": 9549,
    "housing": 9550,
    "Zwei": 9551,
    "directory": 9552,
    "Vater": 9553,
    "gio": 9554,
    "menschliche": 9555,
    "flows": 9556,
    "proceed": 9557,
    "amm": 9558,
    "tigungs@@": 9559,
    "din": 9560,
    "equi@@": 9561,
    "BMW": 9562,
    "Konto": 9563,
    "drug": 9564,
    "verbindet": 9565,
    "abuse": 9566,
    "Rechtsgrundlage": 9567,
    "hervor": 9568,
    "traditions": 9569,
    "Cir@@": 9570,
    "anwesend": 9571,
    "centuries": 9572,
    "investieren": 9573,
    "carrying": 9574,
    "entation": 9575,
    "handle": 9576,
    "killed": 9577,
    "finish": 9578,
    "angegeben": 9579,
    "courage": 9580,
    "Besides": 9581,
    "Organ@@": 9582,
    "frame": 9583,
    "applying": 9584,
    "departure": 9585,
    "ope": 9586,
    "sparen": 9587,
    "ator@@": 9588,
    "solches": 9589,
    "suggestions": 9590,
    "wonder": 9591,
    "sper@@": 9592,
    "vertrau@@": 9593,
    "gained": 9594,
    "Law": 9595,
    "voluntary": 9596,
    "Modelle": 9597,
    "conver@@": 9598,
    "Grad": 9599,
    "solely": 9600,
    "foot@@": 9601,
    "proposing": 9602,
    "raising": 9603,
    "Arbeit@@": 9604,
    "ever@@": 9605,
    "countryside": 9606,
    "holds": 9607,
    "villages": 9608,
    "BO@@": 9609,
    "absor@@": 9610,
    "sit": 9611,
    "subjects": 9612,
    "punkte": 9613,
    "Konsequenzen": 9614,
    "law@@": 9615,
    "Games": 9616,
    "Guests": 9617,
    "alisiert": 9618,
    "pot": 9619,
    "ordinary": 9620,
    "Image": 9621,
    "Lounge": 9622,
    "Datei@@": 9623,
    "formation": 9624,
    "Mail": 9625,
    "verhalten": 9626,
    "COM": 9627,
    "UM@@": 9628,
    "lined": 9629,
    "Provinz": 9630,
    "quar@@": 9631,
    "paying": 9632,
    "trial": 9633,
    "duties": 9634,
    "beh\u00f6rde": 9635,
    "supplier": 9636,
    "AC": 9637,
    "cked": 9638,
    "sern": 9639,
    "Cup": 9640,
    "tes@@": 9641,
    "sich@@": 9642,
    "Darum": 9643,
    "notes": 9644,
    "resul@@": 9645,
    "colours": 9646,
    "Ger\u00e4t": 9647,
    "eingehalten": 9648,
    "artistic": 9649,
    "press@@": 9650,
    "ger\u00e4t": 9651,
    "Dauer": 9652,
    "ume": 9653,
    "politi@@": 9654,
    "29@@": 9655,
    "Nummer": 9656,
    "bereichen": 9657,
    "59": 9658,
    "representation": 9659,
    "dokum@@": 9660,
    "Hamas": 9661,
    "expl@@": 9662,
    "angen@@": 9663,
    "lied": 9664,
    "unge@@": 9665,
    "gewissen": 9666,
    "CS": 9667,
    "ners": 9668,
    "succ@@": 9669,
    "illi@@": 9670,
    "Wo": 9671,
    "gesetz@@": 9672,
    "annt": 9673,
    "sn@@": 9674,
    "eh": 9675,
    "ori": 9676,
    "Fax": 9677,
    "Budget": 9678,
    "Elektro@@": 9679,
    "Rap@@": 9680,
    "thousand": 9681,
    "beantworten": 9682,
    "appeared": 9683,
    "philosophy": 9684,
    "freut": 9685,
    "odi@@": 9686,
    "treat": 9687,
    "se-@@": 9688,
    "Wo@@": 9689,
    "chern": 9690,
    "individuell": 9691,
    "Positionen": 9692,
    "trend": 9693,
    "gr\u00f6s@@": 9694,
    "Boden@@": 9695,
    "Prozesse": 9696,
    "Set": 9697,
    "gal@@": 9698,
    "ading": 9699,
    "gering@@": 9700,
    "camp@@": 9701,
    "ION": 9702,
    "museums": 9703,
    "Tools": 9704,
    "pursue": 9705,
    "nar@@": 9706,
    "tables": 9707,
    "Beschl\u00fcsse": 9708,
    "consent": 9709,
    "Holiday": 9710,
    "\u00e4hnliche": 9711,
    "nevertheless": 9712,
    "Betrag": 9713,
    "R\u00f6@@": 9714,
    "weitgehend": 9715,
    "nicht@@": 9716,
    "comparison": 9717,
    "geschichte": 9718,
    "bereitgestellt": 9719,
    "manche": 9720,
    "ols": 9721,
    "kr\u00e4fte": 9722,
    "Landes@@": 9723,
    "promised": 9724,
    "trips": 9725,
    "Maastricht": 9726,
    "Kroatien": 9727,
    "reservations": 9728,
    "internen": 9729,
    "fun@@": 9730,
    "100@@": 9731,
    "W\u00e4hlen": 9732,
    "receiving": 9733,
    "beobachten": 9734,
    "bedeutende": 9735,
    "Glaubw\u00fcrdigkeit": 9736,
    "mas": 9737,
    "inmitten": 9738,
    "input": 9739,
    "invited": 9740,
    "Deb@@": 9741,
    "Egypt": 9742,
    "ziel@@": 9743,
    "Top@@": 9744,
    "Having": 9745,
    "Politik@@": 9746,
    "tel": 9747,
    "ger\u00e4te": 9748,
    "unity": 9749,
    "wiederholt": 9750,
    "sheet": 9751,
    "oti@@": 9752,
    "mussten": 9753,
    "della": 9754,
    "difficulty": 9755,
    "root": 9756,
    "mo": 9757,
    "gestellte": 9758,
    "tobacco": 9759,
    "40@@": 9760,
    "Rahmen@@": 9761,
    "zust\u00e4ndig": 9762,
    "effizient": 9763,
    "Ton@@": 9764,
    "riffe": 9765,
    "\u00dcberlegungen": 9766,
    "Schwer@@": 9767,
    "Empf@@": 9768,
    "award": 9769,
    "skiing": 9770,
    "portfolio": 9771,
    "bekommt": 9772,
    "bergen": 9773,
    "Mir@@": 9774,
    "Parkplatz": 9775,
    "uted": 9776,
    "Kopf": 9777,
    "Hom@@": 9778,
    "Kulturen": 9779,
    "mittleren": 9780,
    "ausgezeichnet": 9781,
    "sozialer": 9782,
    "essi@@": 9783,
    "entspannen": 9784,
    "Ganz": 9785,
    "Trotzdem": 9786,
    "Islamic": 9787,
    "Kontakte": 9788,
    "laufenden": 9789,
    "anbelangt": 9790,
    "Wur@@": 9791,
    "sle@@": 9792,
    "92": 9793,
    "erstmals": 9794,
    "clo@@": 9795,
    "Legal": 9796,
    "\u00fcberpr\u00fcft": 9797,
    "Zivilgesellschaft": 9798,
    "Quality": 9799,
    "Num@@": 9800,
    "Bulgarien": 9801,
    "sus": 9802,
    "suggested": 9803,
    "Gegenstand": 9804,
    "Reduzierung": 9805,
    "viol@@": 9806,
    "wirtschafts@@": 9807,
    "dul@@": 9808,
    "SA": 9809,
    "St": 9810,
    "Suiten": 9811,
    "langfristige": 9812,
    "58": 9813,
[...]
